/**
  ******************************************************************************
  * @file    network_fx_data_params.c
  * @author  AST Embedded Analytics Research Platform
  * @date    Wed Nov  1 15:46:04 2023
  * @brief   AI Tool Automatic Code Generator for Embedded NN computing
  ******************************************************************************
  * Copyright (c) 2023 STMicroelectronics.
  * All rights reserved.
  *
  * This software is licensed under terms that can be found in the LICENSE file
  * in the root directory of this software component.
  * If no LICENSE file comes with this software, it is provided AS-IS.
  ******************************************************************************
  */

#include "network_fx_data_params.h"


/**  Activations Section  ****************************************************/
ai_handle g_network_fx_activations_table[1 + 2] = {
  AI_HANDLE_PTR(AI_MAGIC_MARKER),
  AI_HANDLE_PTR(NULL),
  AI_HANDLE_PTR(AI_MAGIC_MARKER),
};




/**  Weights Section  ********************************************************/
AI_ALIGNED(32)
const ai_u64 s_network_fx_weights_array_u64[1152] = {
  0x3c010bef3c6944bdU, 0x3c44d6663be2b19fU, 0x3bdd15243bc2d800U, 0x3c51c13d3bdb9de0U,
  0x3b9ca4773be97698U, 0x3b139eed3bf2c0a6U, 0x3c61885b3bb383d9U, 0x3bb802593c6c1d05U,
  0x3cadeb373c04bd00U, 0x3bf503493c1b4babU, 0x3c54e9793c230c48U, 0x3c2748b73c0a45a6U,
  0x3bf11ae339c3ffeeU, 0x3bd308bf3b506126U, 0x3c4966cf3bc0f33aU, 0x3c02345537001f4eU,
  0x3bf0c82b3c22106eU, 0x3c7ff95b3bf72303U, 0x3c4c8e413c4f84f8U, 0x3c34ae783c3c6e61U,
  0x3747846d3c85be43U, 0x3c2ef2993bd882ffU, 0x3c14f7d53c0245b1U, 0x3c1e870f3bfc21b7U,
  0x3bc80c7c3bb25092U, 0x3aaf95ee3c287c3bU, 0x3c22e745395574bbU, 0x3b10dab93b65a188U,
  0x3b4961383b70e95fU, 0x3b32b9363b965734U, 0x3c6ec30a3a864c94U, 0x3ac0ac373c0d728cU,
  0x3bb6b4623bc2bd4cU, 0x3c0564853c89ba8cU, 0x3bc199783c30610dU, 0x3b5fc6353bd2d313U,
  0x3baebafd39f54b0eU, 0x3c05185a3a987bf6U, 0x3c2789aa3c08ebb9U, 0x3bcefb85362683edU,
  0x3b9a3c513bdd1ffeU, 0x3c32b9793be73ca5U, 0x3bc73a953c15a8eeU, 0x3b9272c53c0e2731U,
  0x35ed49a23b981fd6U, 0x3bb7dbc13bbcc827U, 0x3c144c453baadd3bU, 0x3c11671c3b480e33U,
  0x3c73acfd3c2e6a58U, 0x3ab5ef533ceb9352U, 0x3c0b8ec33a976555U, 0x3b1ad62b3bd4faedU,
  0x3a6bf2633a23de2eU, 0x3b2bd9e53bbdec20U, 0x3c8773ac3beeb38dU, 0x3c2827693c71868cU,
  0x3c3d20253c94e484U, 0x3c634f973c196440U, 0x3c9cd5473c296e13U, 0x3bc7547e3bfd7d28U,
  0x3c2b7e1c3975f974U, 0x3cb016463ada614eU, 0x3c1220983c879f0dU, 0x3ba42e8035b6a15cU,
  0x3baa307a3c823721U, 0x3c5c2d1d3c194969U, 0x3c36b19f3bafb8d5U, 0x3afbaf6e3c48cd0cU,
  0x35eb8bed3c4a0cd2U, 0x3c15c7103c866e56U, 0x3c244caa3bdde1d4U, 0x3bc69d183ac0de9bU,
  0x3c7254333c27d4ffU, 0x3d7df66e3c05e538U, 0x3c3d41c13d944c72U, 0x3cd5a0fa3da32025U,
  0x3c4e65853cd7b88aU, 0x3c183f813c795084U, 0x3c0ad5733d59c42bU, 0x3d1a31113cbe5c9bU,
  0x3cc3d5ce3c114bfaU, 0x3c5599c53c36783eU, 0x3c2681bf3c99286eU, 0x3c8804673c8fa170U,
  0x3c4faca93a4bb745U, 0x3c4079193cf21bf6U, 0x3c45962e3c9721c3U, 0x3c72ba3f3781a098U,
  0x3c9289a83c333769U, 0x3c306c593c471d53U, 0x3c369a6f3c7c8898U, 0x3d7d78a33cfdc14bU,
  0x3913c7be3b98c567U, 0x3c31bac73c384011U, 0x3c1aa06e3c9fe68aU, 0x3c3bd26b3d49b666U,
  0x3c87532d3caf67faU, 0x3caf13cf3ca43cbbU, 0x3bac74fd3e6168afU, 0x3c2309783cc7f68cU,
  0x3ad4d4673c48023fU, 0x3acc37da3b9e44deU, 0x3c6906f03cbf95a3U, 0x3df73b6c3c1b1312U,
  0x3d1747e43bb292a0U, 0x3ce1cb393c55716bU, 0x3c9537813bbadf5dU, 0x3ccd44d13c15d218U,
  0x3c085e0e39e319f3U, 0x3c59b0b33c0688e4U, 0x3ba272403be7ebaeU, 0x3c92a3bb361cc000U,
  0x3c5a0cdb3c448eb3U, 0x3c57ac243bdeac56U, 0x3cbb69fe3c91f667U, 0x3c673b9d3c6d348bU,
  0x37c8e8ef3be4c88dU, 0x3c0a736d3ce1addcU, 0x3c3c7b703ca74f4cU, 0x3c5dbc813bc44a77U,
  0x3bf64b8e3b1dd572U, 0x39a779803d1c1941U, 0x3c6358a439615a25U, 0x3b01b1483b231eb2U,
  0x3d3b777e3b693e5cU, 0x3ca797033d095ff7U, 0x3c4b77473b11761aU, 0x3c436ea73bb218cbU,
  0x3c953cf53c3a408cU, 0x3bb954353c27e60eU, 0x3bb349f23c862409U, 0x391c035f3bce3f65U,
  0x3c1aeba939f65665U, 0x3c19a32c3bc5b386U, 0x3bf796c93c5bca63U, 0x3c03ec583800170dU,
  0x3c7501613ca80072U, 0x3bd316bd3cd5b7caU, 0x3bda0c2b3c2135c4U, 0x3a530b5c3cab323fU,
  0x373d952d3ba03190U, 0x3bdde3283bcb3b15U, 0x3c1d423e3bb669a9U, 0x3c7fccff392030abU,
  0x3c85cc5a3c863b55U, 0x3c6bf78a3c46c8bfU, 0x3c21f5f33d971305U, 0x3d99bb1a3cb033f7U,
  0x3bc5a77a3ce9c8f2U, 0x3b888b2d3c21d6c5U, 0x3c539fa33c1452ecU, 0x3da2116f3c5d3c6dU,
  0x3c4618643bfd09a3U, 0x3c09d6183bd8fa9eU, 0x3c9f02433c35edfaU, 0x3c85437a3c588139U,
  0x3c038bd33a31a40eU, 0x3bd4e1573ca28cc5U, 0x3c0bbe6d3c40e9b4U, 0x3c4c93ae36de0b8cU,
  0x3c90a47d3c5bcfc8U, 0x3c3a11173bc94b58U, 0x3c0b9e433c21f76fU, 0x3d1d8bb53c4f9bfbU,
  0x38ae42b73bbfa779U, 0x3c36ecd93d08938eU, 0x3bef87593cdb4924U, 0x3c5613553d22ca88U,
  0x3c035f673c7e4439U, 0x3c7b7aad3bd59c30U, 0x3c25f7433c0f3cd1U, 0x3c3261813c9959bcU,
  0x3b96769d3c92781dU, 0x3b76c6803c4ab014U, 0x3c24f3053d399ffdU, 0x3d022fb93c2bd266U,
  0x3c4c6dd43c047136U, 0x3c16f18d3c2f46e1U, 0x3c1f1d853c1ca500U, 0x3c82b79e3c5478f3U,
  0x3c20fc9f3a50b76dU, 0x3c6fa2823c42c028U, 0x3bc46e793ca17509U, 0x3c05a48c36a64033U,
  0x3c4de1153c156e9bU, 0x3c1204ea3bdba863U, 0x3c230ad43c218a8eU, 0x3c2a45073c3d2704U,
  0x380affe43c058969U, 0x3c93c5fe3c2e00b2U, 0x3c38ad703cc4a9f3U, 0x3c4c8a133cd20a0aU,
  0x3c457bbb3c2f2a8cU, 0x3d831f153c21988eU, 0x3c5647ef3d0312e8U, 0x3c61ebfe3d0b1f4eU,
  0x3c8df3833ddb5bbdU, 0x3c2707983ce9fec1U, 0x3c449fac3e293860U, 0x3cb8c5653c81d0f8U,
  0x3cab6b0a3c22d3fdU, 0x3c1edb123c13b5a4U, 0x3b9bc7b33ca71361U, 0x3c9a82e23c93344dU,
  0x3c10588339e43b83U, 0x3c0bf64a3e28df48U, 0x3c4e4a843cc5834aU, 0x3c41768237c59cecU,
  0x3d1950a83c1a0429U, 0x3c259f9a3c355bd7U, 0x3c70ef2b3c95c62eU, 0x3cb70af73c37319aU,
  0x3987511b3b3e5c02U, 0x3ce289573c5d293eU, 0x3c517c473c7a29f6U, 0x3c89351f3d13ef73U,
  0x3c6f422a3c327113U, 0x3bb2ff0d3cb2db73U, 0x3c87a6be3b416bcbU, 0x3c1b634d3c64e79bU,
  0x3d1ee6803b745a12U, 0x3ca78f993c8f1bafU, 0x3c490dbd3c3df66cU, 0x3c31cccb3c4128d5U,
  0x3c868a433cab0333U, 0x3c2c61d93c76978dU, 0x3b9f24c83cf61307U, 0x3be0df6b3c901b45U,
  0x3c2351c93b0b871cU, 0x3cf4bf993aebb919U, 0x3ca14f443c2a1f73U, 0x3c57ee0b3957b7c5U,
  0x3c9a15153c3ae58bU, 0x3c6ce7513c968480U, 0x3c1a653e3cd7523bU, 0x3bd9dd1f3c49f5f1U,
  0x3514344e3bc5abc2U, 0x3c81d9223c50656eU, 0x3c0fbad03c6d734aU, 0x3c825deb3bd3d741U,
  0x3c4654c63c8465eeU, 0x3b7c4ef33c79b8b8U, 0x3bc2c09d3b0f2a88U, 0x3bdbfb573c2e6e35U,
  0x3cd51a263bebd3d9U, 0x3c7d5f813d4e4b06U, 0x3d079e403b462301U, 0x3b42b5da3d687f8bU,
  0x3c35b2a03c9ce7e1U, 0x3d109f843c8925ccU, 0x3cb272673cc11d76U, 0x3cdb5d0f3c89f51bU,
  0x3c9edb9f3a2d29acU, 0x3cd0c37a3baa43e7U, 0x3c6161a13c99d0e5U, 0x3c00e1bd37aa90f1U,
  0x3c3344e43c87a3d5U, 0x3c95fd643c365255U, 0x3c8ee6613bf847baU, 0x3caa2d773c2d50e1U,
  0x37190b5e3e1a2bd4U, 0x3c5370a03bd1ca49U, 0x3c803b693c825954U, 0x3cadd6323c094faeU,
  0x3c798c3f3ca0a6c0U, 0x3c01df653d0cd315U, 0x3c9ca25e3af197a2U, 0x3c01dc613c8be282U,
  0x3e1401743c625ab4U, 0x3eceeeed3ca9f881U, 0x3bccd4db3c9a6facU, 0x3ba3c4c63c739422U,
  0x3c4643c23cad520cU, 0x3c1285013c356da5U, 0x3bf5d8493d4a6a33U, 0x3c0eaf073cbdf8e8U,
  0x3c4d072c3bc6a996U, 0x3cf2df563ab7c377U, 0x3d096b243c9d8b5fU, 0x3c4231383a4535b7U,
  0x3ca7e7973c34d9b3U, 0x3c5e10cc3c9bbe85U, 0x3c2c15253d17c386U, 0x3c0441da3c759fc6U,
  0x37b2de4a3bbc22acU, 0x3c6b4aba3c53c2c2U, 0x3c5645533c06d0e3U, 0x3c861e163be83feaU,
  0x3c7b489e3ca798abU, 0x3dafdf963c0e1b89U, 0x3cac9fca3c5fb83bU, 0x3cd686e13cfbc2e8U,
  0x3c2038243d0bfe71U, 0x3c268aa03c89651cU, 0x3c2f85c53d4296a0U, 0x3c6898963ca5b2fcU,
  0x3c31231d3c04b5a2U, 0x3c46d43c3c1aef88U, 0x3c0f68193c966fc5U, 0x3d2655d03c9d509eU,
  0x3c2df3703a484d2fU, 0x3c4f3e333dfe207dU, 0x3c2dbc9d3ca360aaU, 0x3c383b5c373ae892U,
  0x3cf79fbd3c1af73fU, 0x3c973e703c49e2a2U, 0x3c8ee6403c89837fU, 0x3d8aaf843c716a85U,
  0x394ee0573c29d3ecU, 0x3cfd90883c826706U, 0x3c0e27193ca03de4U, 0x3c89fb513e45da91U,
  0x3c2651373c25e01bU, 0x3b3877363b90aeecU, 0x3bd0ec8d3b044376U, 0x3b426c793bb6dfe4U,
  0x3adfdf913a135391U, 0x3ad3f53e3c237bc5U, 0x3c42c6d43b2ade9aU, 0x3b81fe103c34b849U,
  0x3bc882593c8c26f5U, 0x3c69fc933bf8d39eU, 0x3c192f063c884812U, 0x3badce4a3c23c85bU,
  0x3c1c7f7a39caf451U, 0x3c31cc0439893f38U, 0x3c810bf23b7cfc11U, 0x3c9149b1364f0993U,
  0x3bba2bc33c5d899aU, 0x3bcf8d4a3c36984fU, 0x3b9527703bb04592U, 0x3adaf7d03bce889dU,
  0x35a4173a3b3b2ff1U, 0x3c64a1f93c66324dU, 0x3c88561c3b75f54eU, 0x3c6078c83a273dcfU,
  0x3c883c013c5c5ba4U, 0x3bda9b003be2ecc8U, 0x3c0ea56b3b061a8bU, 0x3cf01dd23c5ee74eU,
  0x3c4346c43c23d0c6U, 0x3b969bcd3c9760cbU, 0x3bce94c13bcfc582U, 0x3ca9636e3c2e654eU,
  0x3caa0c053c50585aU, 0x3befe48f3c3af9bdU, 0x3c9af09b3c837bc1U, 0x3c8f8d8f3c80306bU,
  0x3c2843243a2965d9U, 0x3bf773bd3b8fabfaU, 0x3c8893d23c0b4dbaU, 0x3c47815937993eb3U,
  0x3c3d4cc23ca02de2U, 0x3c120e613c207b00U, 0x3c1b6e513c129a31U, 0x3c0beb8e3c0dcca0U,
  0x378ac7e23bd626b2U, 0x3cccbe373beb61eaU, 0x3c35c5013c4df477U, 0x3c2ba2673b89fe4aU,
  0x3c0699f43c66894fU, 0x3d19f9ac3c08604eU, 0x3bff8a583dcddbedU, 0x3c6c1d4d3dca9d18U,
  0x3b9e19d33ce5ce23U, 0x3bd75e173be4cf3bU, 0x3c2d56263c599c64U, 0x3d024f653c288394U,
  0x3c9a1db73bf1b0bcU, 0x3c1b3abd3c6d7c3eU, 0x3c7e39383c0fc4c3U, 0x3d8853bd3c61518fU,
  0x3be0116c3a25fed0U, 0x3c60901d3be4e326U, 0x3c02b9303c43ea9bU, 0x3c5d24a3369dd9e7U,
  0x3c67b6263be1d18aU, 0x3c0d71433c1569aaU, 0x3c9e97323bef5d52U, 0x3c977a853c2cbe7aU,
  0x37c72f6c3bd5f5a1U, 0x3c002fdd3c431069U, 0x3c20cbe03c6d8420U, 0x3cb145173bac5662U,
  0x3c8527f53be1a1b2U, 0x3b93f60f3ccf1164U, 0x3c61a2af3a324337U, 0x3a89a7db3c1b5508U,
  0x3c86eec63b420997U, 0x3b2b49223c3cab11U, 0x3b9300f03b136420U, 0x3aaf729b3b2e89eeU,
  0x3c2358753c8e8236U, 0x3c205dda3c8ba36cU, 0x3c1df6923bea00d0U, 0x3acdbc603c1af2ddU,
  0x3c75cc983a0c20a9U, 0x3c7f7cd73a5a1503U, 0x3b9c79f53b370997U, 0x3cac5d7436f1a1bcU,
  0x3bcfc3943c6d60e8U, 0x3c4135f03c11f413U, 0x3bb4eddc3c7686f2U, 0x3a9014e63c3d3ac7U,
  0x368122ad3bf8c384U, 0x3c24f0363bb7d212U, 0x3bb798773c7b32bdU, 0x3c859d333b0bf473U,
  0x3be6c5973c14981fU, 0x3c03c50b3be48e27U, 0x3c5ce3cc3d729b6eU, 0x3b9871eb3c54eeb1U,
  0x3b1e89f93b9c8bf4U, 0x3b5a692c3b9a2f90U, 0x3bf44ad73c18bb32U, 0x3ca1880f3c83460bU,
  0x3c81e03c3bbfb348U, 0x3be7db323c06a561U, 0x3bd15b5d3be1dc72U, 0x3c3c981f3c6afd9fU,
  0x3c53488c3a83f705U, 0x3c84786f3b5afd0dU, 0x3baa76fe3bd7170fU, 0x3bfca6aa3651d470U,
  0x3c4dd0c03c09b21dU, 0x3c0cede03bc72766U, 0x3cb1e6cd3c08980aU, 0x3bb181523c500fd7U,
  0x3721fc453bc6a473U, 0x3bad8c893c17a1ccU, 0x3c0d9a343ccd0c7fU, 0x3c167f2d3b744fdcU,
  0x3beab1213c219325U, 0x3b8000f53c89e1bcU, 0x3c28432f39d27e97U, 0x3aaeb7273ba45973U,
  0x3b73b3713b47b8afU, 0x3a0b5c8a3bd8a08dU, 0x3c3bf9333b2ad230U, 0x3be5cf233c8bdd0aU,
  0x3baf50043c387ed8U, 0x3c115fd13c58f509U, 0x3c122a6f3b80d690U, 0x3b9661563bcf440bU,
  0x3be199c6399aeda3U, 0x3c1dad5a3998830cU, 0x3c3f22783c60dc44U, 0x3c8eebf835ec3bbfU,
  0x3b4b1b393c0818f5U, 0x3c00b19d3bc715b6U, 0x3c1619c33c89b8fbU, 0x3a3e96803c88bebdU,
  0x36f03fd13bf59309U, 0x3c4638503c1e0eefU, 0x3c6908773b5e8932U, 0x3bb2cd9139c8f393U,
  0x3c13c2e63c76204dU, 0x3c1dfeb83c41fc93U, 0x3c271ab03ba34c3fU, 0x3c70aa5b3ca542f0U,
  0x3b9ccaab3bde8a29U, 0x3b5ecb893c0376feU, 0x3be307533b984207U, 0x3c8580763c07d44dU,
  0x3c4070533c2a42dcU, 0x3c01b9d93c085c1dU, 0x3cc13a713c6a3129U, 0x3c001df23c280dd7U,
  0x3c2700f93a1480dbU, 0x3c1293833b9da023U, 0x3bd4c1523bdef6fbU, 0x3c1f236d37051d5dU,
  0x3bef69f93be3e176U, 0x3c613e8f3bff3e51U, 0x3c08e1263c2f60e9U, 0x3bbe9cc33c028ea4U,
  0x37887f173c3a7999U, 0x3c038cf93c35c5acU, 0x3c05fc593c0db2f7U, 0x3c2e20bd3ba21ec3U,
  0x3c5624db3c9853caU, 0x3c0a98c43d6e654cU, 0x3ce769e43b89a34cU, 0x3ba0d52e3b376b5dU,
  0x3aa739dd3bdb4899U, 0x3a426bad3dbc7514U, 0x3c76e7c73aeb6962U, 0x3bb2de363c5906baU,
  0x3b70b2a73ca114d9U, 0x3c41b60e3c225de1U, 0x3bf27d603c664344U, 0x3ccd987f3c67b50bU,
  0x3c8e62cf399fdc0dU, 0x3ceabe123b0e3bd7U, 0x3ca156383cc548c7U, 0x3c6be31535992ac5U,
  0x3c99dd973c81fd9dU, 0x3c26caa73c6c9193U, 0x3c8cd2183d25b25fU, 0x3cd8eeb93c783657U,
  0x372ff6ec3c89404aU, 0x3cb2faca3c5fda11U, 0x3c098c3c3c1bca2aU, 0x3c8ad3bb3b5f4af8U,
  0x3c647f343bf9fa96U, 0x3b2e7a743bc2d9c9U, 0x3c179de33b5efa7cU, 0x3c437e003b604c22U,
  0x3b68ef6a3b4ed266U, 0x3a970c773bb552e0U, 0x3ba19a6e3acd61cbU, 0x3bec90013b89e86bU,
  0x3d6a65333c7b6d79U, 0x3c72fe4a3bc78a57U, 0x3b99796a3c7eb87cU, 0x3bd131d13b7fa731U,
  0x3baf37463abe4431U, 0x3c17c80b3a1e4dfaU, 0x3b53c7813b6588e7U, 0x3c1ff29035d8b162U,
  0x3c1c9a163c2869f4U, 0x3b99e2cb3c4e5a7eU, 0x3c7d31093c02cfcdU, 0x3b21da7f3c1c2a81U,
  0x365130133ba29dddU, 0x3b61fc2a3c834791U, 0x3c4657753c1de1aaU, 0x3c8eaa973ae0396eU,
  0x3c6fd72a3c052e84U, 0x3a42436f3b9b28a3U, 0x3ca25ff53a1bbba0U, 0x3b7c57f53b85e6d7U,
  0x3bfae3223b469051U, 0x3bcdb1243d1289e1U, 0x3c03a3ed3a8c5a25U, 0x3b4d87253c015a58U,
  0x3bc77a923ce6e6c8U, 0x3bfc0b463c24737dU, 0x3c22a18e3c110980U, 0x3ac5a6de3c479391U,
  0x3bf90a8239e9cbb8U, 0x3c2d761e3b2c322dU, 0x3d55ea5d3c0b33f4U, 0x3c56b92a3758d1c0U,
  0x3cb673093c8de8dfU, 0x3c5b9a223c14bd1dU, 0x3c225c0d3ca529d1U, 0x3a7b99d33c1b88b3U,
  0x367d8c4d3bdebfb3U, 0x3c92c7893c088dc5U, 0x3c9d71f23be73803U, 0x3c254bb13b14d41dU,
  0x3c5282d23cbd7e34U, 0x3cfceeca3c32d465U, 0x3c72ac883d49c0d7U, 0x3d2c3b6a3d38a086U,
  0x3bc1601d3cd39fc4U, 0x3bba5e9b3c760a15U, 0x3c3d01ad3cf04dbcU, 0x3d3888b73c9d745bU,
  0x3d1ba6863bee8606U, 0x3ca42c183c1ea7caU, 0x3c868e373c62e80fU, 0x3da913e63c871a14U,
  0x3c297cb23a78b4e9U, 0x3c6676f03cd69697U, 0x3c08a28c3ca1c11fU, 0x3c28077b36f6bd93U,
  0x3cb74d8c3c373681U, 0x3c591cd83c19ab84U, 0x3cafec813c5b08e2U, 0x3d5959343c91f142U,
  0x38ebe3813cdfc8e1U, 0x3ca0ae823c8a7aebU, 0x3c48667f3c9f54e9U, 0x3c9511613d01a88cU,
  0x3c19215f3be95b21U, 0x3c2849393d2f8bf8U, 0x3c24304b3bf1ab13U, 0x3c0ff9433baee4cfU,
  0x3dc4cd283bc29376U, 0x3d98e0543ca69ac4U, 0x3bae04e93be1e259U, 0x3bab43bb3b336d98U,
  0x3bf617c03c8d8575U, 0x3b8ed8bb3c38d62fU, 0x3b8645f43ccae0b1U, 0x3b98fc993c249a3bU,
  0x3bf2e7c33f69e293U, 0x3c3e06b63b15a17bU, 0x3c54ce993b7b9975U, 0x3c32ab4636f7b166U,
  0x3c930e9f3bd4df66U, 0x3c26a2fe3c1dc098U, 0x3c020a3d3d0d6675U, 0x3c1919a73be9acbbU,
  0x387e556c3aec6066U, 0x3bd5cef93c1f183eU, 0x3c21d0743bc38af5U, 0x3bd2363c3c30c8caU,
  0x3bdbb4483b3ff20aU, 0x39946d923c9d3e12U, 0x3c342344392ed9c3U, 0x3b8590ae3aa9fd10U,
  0x3bbc5ab53984f657U, 0x3b34d1d93c274964U, 0x3bcd9c593a8775e9U, 0x39ef95233bf33902U,
  0x3b4892303cb41021U, 0x3bad14f93c30d489U, 0x3c5194ea3bc51324U, 0x3a304a4b3c3964f9U,
  0x3c92803a3a5befd0U, 0x3cbcd2ee3a6b2c7fU, 0x3c8eed593b9a518bU, 0x3c41910d3688bb3fU,
  0x3b789e893bd1f63aU, 0x3beb44ac3c4905efU, 0x3bb9997f3c32d857U, 0x3a0cf25b3bb441bdU,
  0x35959c003bd03b2eU, 0x3b314b683c220ab9U, 0x3bbf7b9d3bfc6cf0U, 0x3be2f08f3a2b49ceU,
  0x3c072a883c66be16U, 0x3d8dbc8f3c0826f3U, 0x3c8604283cae8aefU, 0x3d3f78503d017a6eU,
  0x3c57db043cbe654fU, 0x3c50542d3d1c9ed4U, 0x3beae2743d0d7289U, 0x3d1539373c4438f9U,
  0x3d2d46353c19f559U, 0x3c7f1fed3c1d2276U, 0x3c0b81263c8e8315U, 0x3d1b40c13c4fc391U,
  0x3c51204d3a22bf52U, 0x3c1e42ac3db3ac54U, 0x3c05e2c53c99b04aU, 0x3c0a928f37b47736U,
  0x3ca2d9153c31e2beU, 0x3cb5954f3c356cf1U, 0x3c84a7193c837202U, 0x3cd19c3f3c8f322bU,
  0x396b43d43c2e899dU, 0x3c3456b93c38edd8U, 0x3c0f2c683ce3f006U, 0x3c9b3b9c3d1fb9ecU,
  0x3bc43bef3b64aa7eU, 0x3ba743ad3ce70296U, 0x3c7c2e153b4951f1U, 0x3c18bbf73ab6d404U,
  0x3c61b01d39fa5d6bU, 0x3a90bafb3c0d9da0U, 0x3c055ba33ab1900cU, 0x3a1aa0b23c59cecfU,
  0x3c3545dd3c2e66c3U, 0x3c38649e3bf17f6fU, 0x3d29398a3ca1332bU, 0x3b65392e3b3b361aU,
  0x3be534fc399438acU, 0x3bce95b23b136641U, 0x3c57081e3ba65ee4U, 0x3c8c7358361a4875U,
  0x3c19f69e3c48227fU, 0x3c1511363c3677e1U, 0x3b7a39513b8248f3U, 0x3bac9dc93bcc1ce2U,
  0x365b50b53bd61cb9U, 0x3c196e053cad2a59U, 0x3bedfb283c1a34b4U, 0x3ca160ca39e93768U,
  0x3cb93c5b3bbeb7bbU, 0x3a254d7f3c73a05fU, 0x3bb3b8c53b5cdbbbU, 0x3a6842e63b466d3aU,
  0x3bc3c8153b941367U, 0x3ab6355a3bfa2fb0U, 0x3bada7513a719fb0U, 0x3ad1637d3c2904e1U,
  0x3c2086f03badc84dU, 0x3bf2267e3ca1bf17U, 0x3d0585013c1c78eeU, 0x3c22e8f83c7a966aU,
  0x3c9c300f3a26d77cU, 0x3bb200ad3b997eeeU, 0x3be2923f3c1285e9U, 0x3cb4da783699b956U,
  0x3b5e86b43c00ca47U, 0x3c51e1583bcfdf93U, 0x3b6af9473bcfd874U, 0x3a7516e93baaa132U,
  0x36f319783cb848b1U, 0x3c96959c3bdc8611U, 0x3c2e507c3c48dc88U, 0x3c16c8d03b8e1d26U,
  0x3c1057e43bbe954fU, 0x39b4b34d3cbe8bf1U, 0x3cc976fa39664cd0U, 0x3bed95c93a976f1aU,
  0x3d4212ae3b2443f8U, 0x3be26ec13c227ad4U, 0x3cae6cf43b366a3aU, 0x399406413c9035eaU,
  0x3b2ccacb3c0c07c0U, 0x3c520ff63c2d7bb3U, 0x3c43703d3c8e6e98U, 0x3a120a5e3bd1a11aU,
  0x3cb1421f39d3e6daU, 0x3c958ee03b2dbba9U, 0x3cffe5083c50f26bU, 0x3c54de5036bc75a7U,
  0x3c59bb1c3c8998e6U, 0x3c073c603caaf6c6U, 0x3b97c88d3c6090ffU, 0x3a5cb7c53bbcaf59U,
  0x3538d9e73b7540c8U, 0x3c3b10973b5588f2U, 0x3c5c65ab3c2537d8U, 0x3c88cdbf3b0fafa9U,
  0x3c2c3a093c4620abU, 0x3c1b457f3cb883bdU, 0x3cce66813c0bd9b1U, 0x3bc653383c95596eU,
  0x3de6acf63c4c32c6U, 0x3e5a0e1d3ca2c8abU, 0x3c189adf3c0844d0U, 0x3c34c3553c48c57aU,
  0x3c37f7433cd13b5fU, 0x3c283c223c848e06U, 0x3c21a13e3cf8c314U, 0x3bc79a653c934204U,
  0x3c2d889e3cc570c0U, 0x3cad98c93b3ae845U, 0x3c754a963c435888U, 0x3c645b5f3f7ee11cU,
  0x3cc093ff3c544580U, 0x3c4fd0493c5cf68dU, 0x3c30a2f83d1b2b7eU, 0x3c358cff3c4b982eU,
  0x3acd941a3be47976U, 0x3c94f1b23c1a2fe3U, 0x3c2eb1193c0745edU, 0x3c7ca6bd3b907db9U,
  0x3c672e3f3c7decc6U, 0x3b14e5163baf6620U, 0x3c4ca88c3b2aa148U, 0x3af381e13c1bc645U,
  0x3b99341f3a911c82U, 0x3b5b50d33c6775aeU, 0x3cd6e1173a0e901dU, 0x3b9c9c103bf9b718U,
  0x3b28b3a53cb08269U, 0x3c8ed65e3c9aa9beU, 0x3b8338843c04a269U, 0x3afcea4b3ba85224U,
  0x3c3d883939b093e6U, 0x3c22c84b3ad41536U, 0x3bc301fc3c300e47U, 0x3c8ecac7363fe8b4U,
  0x3bf87ce33c7b9f64U, 0x3c08d3773c2ee649U, 0x3bb0bb363c71b407U, 0x3b8fd6d13c1c03e2U,
  0x3639bda33c2135feU, 0x3c4eb6b03c358cdbU, 0x3c55ab7a3b7a9a88U, 0x3c33087a3b3dfcbdU,
  0x3bf1c5073c0cc6bbU, 0x3a94c1243b81a143U, 0x3c36c27c390e5e0cU, 0x3a9f190a3b007f3eU,
  0x3ba2b50939a73d0cU, 0x3ad661ee3bdd38f1U, 0x3bdbd1b73984f856U, 0x3a6a97c33bc9b345U,
  0x3aaaf6153be47234U, 0x3c0c35083ca29db3U, 0x3bcffdbe3c65348eU, 0x394288fa3baf31f0U,
  0x3c7b323839b5a96eU, 0x3be3c79a38bb3a69U, 0x3cb96b9a3bb12eccU, 0x3c0a87ae3686b1beU,
  0x3b9e53653c6d3e9fU, 0x3c0819863c3a67a8U, 0x3b3b6add3c925fd3U, 0x3a39c6483be10231U,
  0x358563d43b63b434U, 0x3c458d7e3bc89bf9U, 0x3c756be93c010d00U, 0x3bc0bba23a0a7d44U,
  0x3c76f9203c9b3b82U, 0x3c9cf1833c3c9bc1U, 0x3c7e14703c91b7baU, 0x3c9acb913cf782f5U,
  0x3bc46b973cb15cacU, 0x3bb1ee793c22316dU, 0x3c19859b3cd2761aU, 0x3ca0351b3c7b9a5fU,
  0x3ccf85ed3bfd176cU, 0x3c2d24fe3c169fd6U, 0x3c6fa0213c697037U, 0x3c9115ef3c7d3e38U,
  0x3c1fec843aa3edbdU, 0x3c3f46413c5dd1a1U, 0x3c2682c43c788a50U, 0x3c467cc6372fe9abU,
  0x3c8f25de3c0c46ebU, 0x3c5f96ce3c0ff03dU, 0x3c09ba1e3c80669aU, 0x3cdf8c803c9450a5U,
  0x38ee93e33b99d866U, 0x3c65d85c3c6984a3U, 0x3c1707393c89cca7U, 0x3c7f63743c935668U,
  0x3c5f832d3aeab55fU, 0x399a67f43beb4e63U, 0x3c49ad623a17d620U, 0x3bf7f9743b6ce55bU,
  0x3bdaca733958fcc1U, 0x3b0faa983b1d08f3U, 0x3be470f33ac54e03U, 0x3b58290c3aebad42U,
  0x3c0bd35b3c46bd98U, 0x3c0050173b9a6f29U, 0x3b325d4d3bf900d2U, 0x3b8662a63c4b71daU,
  0x3c471ac439c200bdU, 0x3c0927393a6b3eabU, 0x3bd9b5683c5c2bd0U, 0x3c979a3336c60ddeU,
  0x3bab24aa3c397b93U, 0x3c097ae23c770f44U, 0x3b92547f3c565f7fU, 0x3b8cd6e33c023b38U,
  0x36a231aa3b82fef9U, 0x3b4c9a453af458ebU, 0x3c7a6c533b927950U, 0x3b322a4c3afee6a4U,
  0x3c0b41eb3ba8f0afU, 0x3a7ae9033beeee37U, 0x3ca3c8433a149cfaU, 0x3b3875ed3b640106U,
  0x3c4c72363a4bda3aU, 0x3be5c6833c3d0c72U, 0x3c1361ec3b3b662eU, 0x3ad0c5d63bebeaeaU,
  0x3b09d2bf3c5cd0f8U, 0x3be600153c0a58ffU, 0x3ba2d3b53c2125e6U, 0x3a92e0843c137c53U,
  0x3c4fc90139ce6d93U, 0x3c0041ee3aecce8eU, 0x3c6ce8c83c17e948U, 0x3c2758f637b520a1U,
  0x3c16c0633c0d6cd4U, 0x3c02a8b93cb361baU, 0x3bb448c43be0c0b4U, 0x3ae934b83be7d1a4U,
  0x35ae51743b99f8c8U, 0x3bf7c4dd3b933d2cU, 0x3c199dff3c066835U, 0x3bef7e703a2893efU,
  0x3bea073f3c959a47U, 0x3c02be2d3ca026e0U, 0x3c5129ad3b6e900bU, 0x3ba2fb0a3bfc097fU,
  0x3d2109533bd54f15U, 0x3ba334143b334079U, 0x3cad00e53bdea164U, 0x3a73e9fa3c21477cU,
  0x3b88269a3c8ef804U, 0x3bea84853caa4913U, 0x3bf80ec53c41cc74U, 0x3c079ae53c8a0dfcU,
  0x3c5bfbeb3a2fffccU, 0x3cc4fa393b7b8effU, 0x3c8d3f343b4b6ee4U, 0x3bfed4c63621598cU,
  0x3c3729673c3faef4U, 0x3c7267213c98f43bU, 0x3c4fe30d3ce5c0beU, 0x3afee5363c1cf184U,
  0x36c68b693bedc069U, 0x3bf9d2643ca0d9cfU, 0x3c21d3883c38087bU, 0x3c19244e3b450e71U,
  0x3c0ba3393c8f4cf0U, 0x3c111a8e3be5488cU, 0x3c2bbefb3c92c503U, 0x3c7601a03c3e868dU,
  0x3b442acf3bc9bd63U, 0x3b448cd33bca8d06U, 0x3c1f3d213be616d7U, 0x3c4198fb3c199e28U,
  0x3c0d0c173c044c0aU, 0x3c7ab9243bd49833U, 0x3c28b6503bfd97b7U, 0x3c4ad6493c09f09dU,
  0x3c52f22a3a222112U, 0x3c1a911d3bb63788U, 0x3bded7133c2f4599U, 0x3c03e6ca364558a5U,
  0x3c1bfe3b3c0e4863U, 0x3c19655f3be8fc0fU, 0x3c0b323e3be3933fU, 0x3c76894a3bf73691U,
  0x378cdae93c1d1589U, 0x3bee06a03bffd2d7U, 0x3c13f4eb3c18f5d3U, 0x3c1b37f13be4b1ecU,
  0x3c8a790c3beee2a1U, 0x3c4b0dfc3c03a63eU, 0x3c0e66483affbe7dU, 0x3c030b843cd9d37eU,
  0x3c5b55843c1b8c3dU, 0x3b6fefd13c342d11U, 0x3c41f38e3b88fda7U, 0x3cbb5abd3c4422feU,
  0x3d0e51cb3bcdbe8cU, 0x3c657dd33c0ca78cU, 0x3cdfd5673c285490U, 0x3bb569dd3c4b757aU,
  0x3c075c3f3a89afbfU, 0x3c083e2b3bd5a0fcU, 0x3c1872573be363abU, 0x3c662a4c36c6e554U,
  0x3be3da1d3c2215b1U, 0x3c34340b3c2e8d6aU, 0x3c0c67a83c32058bU, 0x3b95a5643cc124b0U,
  0x37b073933c2906d5U, 0x3c0429f23c1dfd59U, 0x3c30ea893c56b678U, 0x3bdcc5f23ba30c67U,
  0x3ca913e43cd4db05U, 0x3d0370973c4b7c8eU, 0x3c9e138a3d02b362U, 0x3db61ffc3cf7fcceU,
  0x3be8727c3ceacaaeU, 0x3c177b1e3c75f1dbU, 0x3be8f2813d172f50U, 0x3b21a40e3c540d61U,
  0x3b7f800b3bdc4f90U, 0x3c6174c83c617026U, 0x3be137e13c9331d6U, 0x3da107e63c947fe6U,
  0x3c8bdda33ab5a437U, 0x3c55c8053d065da8U, 0x3c846dea3d2def25U, 0x3c5d70d3372d728aU,
  0x3cafcb3a3c43f955U, 0x3ca3500c3c442e48U, 0x3c5aad393c90ca9bU, 0x3dc9c6883c16e6b7U,
  0x3920c6eb3d9307efU, 0x3cdfe4653c7d0eafU, 0x3c945ce03cb17b0cU, 0x3c766fdd3d4f1e18U,
  0x3c54c1143cddfc65U, 0x3c54206f3b9592a8U, 0x3bd25bda3a93cc0eU, 0x3c84e9103ba6db39U,
  0x3aed35ec3ab2e13bU, 0x3aae85ea3b85ca5bU, 0x3c2f7c553bc86d5cU, 0x3c88668b3c646362U,
  0x3ba129c53c3c6412U, 0x3c30c5303c41d455U, 0x3bd4fb573b5efb6dU, 0x3c01d06a3c2d4a69U,
  0x3c9551103a2c7d55U, 0x3c078e453a0e2511U, 0x3c863d1a3d0c7a87U, 0x3c19a7fa3632044aU,
  0x3c1761063bf080aaU, 0x3c96b2bd3c55f326U, 0x3ca1db913cd152d5U, 0x3c27b1183c03d9daU,
  0x3610826a3da3f312U, 0x3baa9a943ca2264dU, 0x3c53e3a83c15b338U, 0x3c42c9083ba75e02U,
  0x3c6bfec13c926e68U, 0x3d13d20a3bf128a1U, 0x3c6a83ff3d104121U, 0x3d1fafe53c839cc3U,
  0x3d42221c3e92a69dU, 0x3ca528873ce614fdU, 0x3c81c55b3dd2ef5fU, 0x3c0585c93c99cde5U,
  0x3cb338703c81df62U, 0x3c45d0b83c3d20f8U, 0x3b8f62f63dd295baU, 0x3c4200ee3d7d1323U,
  0x3c0a294339d2b4e1U, 0x3c81b1e53d49a1a4U, 0x3d14d7493c87fc43U, 0x3c3dc7df3922a4abU,
  0x3cc46fd33c14f548U, 0x3c3c26873c3c0b93U, 0x3c9a49353cb6d9c4U, 0x3d4635f13c0def78U,
  0x3f7ae8bc3c053cedU, 0x3cc35f073c63f922U, 0x3c22ba043c5f1275U, 0x3c8235e33d5fd9dcU,
  0x3c10b9c13c49f8dcU, 0x3bb64b0a3c0be4c4U, 0x3bc51b243be34c34U, 0x3c07c1833c0f9fedU,
  0x3b2a49723b847d8bU, 0x3afe1f603b9e63c8U, 0x3c04a19b3b938444U, 0x3c7ba9ce3c100336U,
  0x3c54d7c93c0d48d1U, 0x3ca2d6fc3c32510aU, 0x3c07adb53bdf419dU, 0x3c0839f83b98e008U,
  0x3bdbc77c3a23db81U, 0x3bd9fa193b4bd9efU, 0x3be616af3b9fd5e7U, 0x3c33af4c3630c20bU,
  0x3bf8cac73c1917fbU, 0x3c1950033c051475U, 0x3c25ade03bccc970U, 0x3bac37c83c700e9eU,
  0x372824283c492648U, 0x3c1ceed73c159f9dU, 0x3c30e08a3c081483U, 0x3c18f7da3b284d8fU,
  0x3c39091d3bd00775U, 0x3ba7664a3bed633eU, 0x3cb7408d398e39c7U, 0x3bac3b8f3be0ab5eU,
  0x3c3d6f853b1951edU, 0x3bf284a63cf9e378U, 0x3c4102703b5481e9U, 0x3bd19c673bf64931U,
  0x3be8479e3cad4496U, 0x3c4129a53cde5e68U, 0x3c3eba683c330051U, 0x3b7f5aac3c9e5ba1U,
  0x3cb777373a584116U, 0x3be4eda53a525d81U, 0x3cd149de3c37c8a4U, 0x3c1b723f3861d506U,
  0x3c45ad1b3cb0f6f0U, 0x3cc66ab23bf9e4d0U, 0x3c298b793bdba4d3U, 0x3afac5cf3cc58bccU,
  0x3737b7043ba55d48U, 0x3cafa3f23c1c76dcU, 0x3c5b919d3c350eb3U, 0x3c4a3de23b348366U,
  0x3c27d8733c41b40dU, 0x3bc330973bac12a9U, 0x3c2cc8ea3cf3c5adU, 0x3c88a65c3c03ed1fU,
  0x3b8273843bca0cd6U, 0x3b74a03d3c4ea9a6U, 0x3c312e0c3b9087deU, 0x3c9480d33c36d33cU,
  0x3c2ee35d3bedbaaeU, 0x3c22befb3c009e63U, 0x3ba12e903c528f22U, 0x3bd510253c015bd1U,
  0x3c00d03539c66cd3U, 0x3bef22453b8531eeU, 0x3bbfe0803c18e683U, 0x3bd47a4b366f7b01U,
  0x3c043d143becaf0cU, 0x3c0d7f6e3c30d639U, 0x3c3469ce3c04cfdfU, 0x3bf942e73c007716U,
  0x37307c6f3c318c0dU, 0x3c870fc23bf89140U, 0x3be9787c3c27ce81U, 0x3c2b91463b567c06U,
  0x3c47a1c73bd08399U, 0x3b8a423d3c39bbb2U, 0x3c6302ee39f98dc0U, 0x3b4767383ae7ee73U,
  0x3b8751023aa6c026U, 0x3ac1f9ca3b908d7bU, 0x3c1c05583a25f1baU, 0x3a73415b3bc0607dU,
  0x3bc986bc3c1f7a04U, 0x3bd9c04f3c17dbe1U, 0x3bd675223b92c853U, 0x3b6a5d583bac742aU,
  0x3bddb7da39d7ff0fU, 0x3c31b7603afa095cU, 0x3ba38a133c3ec538U, 0x3c9a8fc635f57fecU,
  0x3c03394e3c354f37U, 0x3c62ef893c527962U, 0x3bf77f913c51daafU, 0x3a7040393be52a45U,
  0x35c26bc23b7051c9U, 0x3baa1c243bb8dc58U, 0x3c7925b93c438733U, 0x3c13c0913a5ddc0fU,
  0x3c6674163cb223caU, 0x3e012ec03c5a9537U, 0x3cfe23443c0d25d3U, 0x3d20e4573ca0bf6aU,
  0x3c3265ae3d16b9c9U, 0x3c1b37f43ceb60d1U, 0x3c0a58d33d555a59U, 0x3c2a14fb3c95058fU,
  0x3be0123e3c21a852U, 0x3c8352db3c30fa13U, 0x3c06325e3ca9e04dU, 0x3cec039d3ccd97d2U,
  0x3c6df2af3a911407U, 0x3c7b9b973e5fbc9bU, 0x3c2a45083d677979U, 0x3c5d46673756aab2U,
  0x3cfae09a3c8a4893U, 0x3c95631d3c871b09U, 0x3cdfe2893c794bc2U, 0x3dc70a053c9c2b45U,
  0x38fefd853ca1ef43U, 0x3cd0c0b43c759f8dU, 0x3c4e11ca3caf4c05U, 0x3c8c686e3e3bc9a8U,
  0x3c3a6f3a3c0cdf2eU, 0x3b8d83f43c8a5004U, 0x3c2929543b529164U, 0x3c09de533c2e2f65U,
  0x3b292b5e3b4d2047U, 0x3b04069f3c83c8eeU, 0x3ce3889d3b27765bU, 0x3c723df43c28c770U,
  0x3c4afded3c021708U, 0x3bf6e0553c0a55a6U, 0x3c80f6db3c6800f0U, 0x3b94a3a23c3fb54eU,
  0x3c9fd2a8399d6206U, 0x3c8505563ac9e30eU, 0x3bf1e56f3c4855eeU, 0x3c092eee364048efU,
  0x3bbd45f03c26ebebU, 0x3c074ecf3c46cfa7U, 0x3c85fa2a3be3647fU, 0x3b8b34343c3d3cafU,
  0x369b44643bf76814U, 0x3cc40a293c2c5e82U, 0x3cb2f4033c439eabU, 0x3c8ee1a93b25d8c9U,
};


ai_handle g_network_fx_weights_table[1 + 2] = {
  AI_HANDLE_PTR(AI_MAGIC_MARKER),
  AI_HANDLE_PTR(s_network_fx_weights_array_u64),
  AI_HANDLE_PTR(AI_MAGIC_MARKER),
};

