/**
  ******************************************************************************
  * @file    network_fu_data_params.c
  * @author  AST Embedded Analytics Research Platform
  * @date    Wed Nov  1 15:45:54 2023
  * @brief   AI Tool Automatic Code Generator for Embedded NN computing
  ******************************************************************************
  * Copyright (c) 2023 STMicroelectronics.
  * All rights reserved.
  *
  * This software is licensed under terms that can be found in the LICENSE file
  * in the root directory of this software component.
  * If no LICENSE file comes with this software, it is provided AS-IS.
  ******************************************************************************
  */

#include "network_fu_data_params.h"


/**  Activations Section  ****************************************************/
ai_handle g_network_fu_activations_table[1 + 2] = {
  AI_HANDLE_PTR(AI_MAGIC_MARKER),
  AI_HANDLE_PTR(NULL),
  AI_HANDLE_PTR(AI_MAGIC_MARKER),
};




/**  Weights Section  ********************************************************/
AI_ALIGNED(32)
const ai_u64 s_network_fu_weights_array_u64[3797] = {
  0xbdccb2cfbddde6daU, 0x3d9d8ceabde8a3caU, 0xbd7a7719bc839899U, 0xbe500efc3d884f1eU,
  0xbe15fa233d5ad0b3U, 0xbd7475d9bda60fa9U, 0x3d5eaa073c25dd05U, 0x3e1cf291bc1c5cd1U,
  0xbb12b3553dff6fd2U, 0xbd1dafaabdb20623U, 0xbd9f6b9e3d18f36dU, 0x3c5dad4dbda6c034U,
  0xbe7848ec3e1ac071U, 0x3e88527abc074cbaU, 0xbe08903c3c83b918U, 0x3e1beb30bd36cc59U,
  0x3db615743e305d1dU, 0x3c149f21be7f21daU, 0xbc35959d3e97be65U, 0x3e0a5290bccd6ad2U,
  0x3c324a8fbc9de27aU, 0x3d6d52263dc83cd8U, 0x3cd21d9cbd8c0c30U, 0xbe10ea07bd6e9a4bU,
  0xbf17be123dcbafdbU, 0x3c35927ebe9aed5cU, 0x3e34431cbac0f082U, 0xbee33ad23d6d541aU,
  0x3d883ef13ea12d2dU, 0xbefcf8003dccf2afU, 0x3d9c4a8abde4a13bU, 0xbe05047c3ea597a3U,
  0x3ca6bc91be813d17U, 0xbe1c1afe3d1e5990U, 0xbe8583c13e9aa9fcU, 0x3eed1a18be3a8adbU,
  0xbd90e59a3e6d29d4U, 0xbf66e0273f1429e4U, 0xbd535fe5bdbe392dU, 0xbdbc89713cdb7d62U,
  0xbd1a7fcc3e27c3ecU, 0xbebe250b3dee8e46U, 0x3d5f1ec53be60480U, 0x3e60cbb1be89d630U,
  0x3e5dd9f53ce2588cU, 0x3efb8857bd32e6ccU, 0xbe73d4a8be2de1eeU, 0xbe9776b53e34c434U,
  0x3cbceb743c188c55U, 0x3dab4b923ad05493U, 0x3e1b68fc3d1a9d5cU, 0x3e1453ad3dd7ba6bU,
  0x3d74cd93bd206e9cU, 0x3d6b84503e10a02cU, 0xbcbc74ccbceef42dU, 0x3d4f9ec1bcb39a5cU,
  0xbdbc6ff2bd3f71eaU, 0x3e3260783e1a0fd9U, 0xbdd1df1e3c72235aU, 0x3dc29de93e619d45U,
  0xbd9429a6be5c8f0cU, 0x3d2eed72be06acfcU, 0xbd9e7589bb7f9dccU, 0xbe57b071bd03a1ccU,
  0xbe303c753cd81fb8U, 0xbe00c76abe401fd8U, 0xbc9cab4cbd833378U, 0xbcbffbbebd9dddfaU,
  0x3e0274f53e1b7e83U, 0x3e7d42fabd50daa9U, 0x3db573203dd21bfbU, 0x3d346c61bd0472c6U,
  0xbe834ff83d9711f1U, 0xbde58babbe4c4f0fU, 0xbd4644c5bd4c500aU, 0xbeae06b4bdaf9dfaU,
  0xbe10f13b3c239527U, 0x3a8fb51f3db783cbU, 0x3dbf273d3e419d4aU, 0x3c915b48beabe01dU,
  0x3e149354bcd678e4U, 0x3c014c29bcbc29b0U, 0xbddfcd8abd876743U, 0xbc8f3ff93e9019e8U,
  0x3ea7c7363d2fb7c8U, 0x3f1fb292bc7120b7U, 0x3d9b3fc93eb9e76aU, 0x3ea777ebbe315c67U,
  0xbe8302a33e1a0607U, 0xbe73f418be23477eU, 0x3e23d27d3e90976eU, 0x3e82110fbe09e994U,
  0x3d3706223e327101U, 0x3d666a7cbb44b57aU, 0x3d312ebc3e031e70U, 0xbe24ca4d3e024cbbU,
  0xbe532bb13e0a949bU, 0x3e8806ebbdf94e20U, 0x3ea16c273e00b092U, 0xbdf6a0f33e8399a8U,
  0xbe1cd8863e21e136U, 0xbee2ba00bd6eabb1U, 0x3e4f067c3dd9166fU, 0xbb861e843f21badaU,
  0x3cba5e2dbd88fe1aU, 0x3e97d416bcaabdcbU, 0xbe08768a3ebb607cU, 0x3e13d9513e66cadeU,
  0xbebcd74b3e4fdc78U, 0xbdf1f2bc3bce8693U, 0xbcf7f22dbe8b1621U, 0xbe4eb1733b28cf17U,
  0x3db1ac9c3e829493U, 0xbe129146bdfc2ec8U, 0xbede9e213e36750cU, 0x3e391e723e38b963U,
  0x3f1b4ea93d0bcc2eU, 0x3ee09603be3d3507U, 0xbdbe1feabf07bf32U, 0x3dcfcdfbbdb234a6U,
  0x3d18089c3e1eb480U, 0x3e1c3bee3e0233a1U, 0x3abeb4363c9bb7c9U, 0xbe8ed969be2a1814U,
  0x3dbe54f3bd980521U, 0xbd8ab37b3db7f444U, 0x3d8cbb5abe288d6eU, 0xbd253d5a3bba3399U,
  0x3dbb395c3d5cbdf5U, 0xbda85a183dc8b0d3U, 0x3e44fbc8bd48fb3cU, 0xbddf5252bdf04ee5U,
  0xbd43320a3d310368U, 0x3d63c328bdc5848fU, 0x3c35ab913d39e470U, 0x3e1a59af3e2f2ec8U,
  0x3e1ad2c93dab959aU, 0xbcd137c23e400400U, 0xbe0f0d553ab0cc18U, 0x3d8f74423acf263fU,
  0x3e0cabc1bd9058c7U, 0xbcab64c5bd8410faU, 0x3e0887913d8bb595U, 0x3d3c4c54bd87b836U,
  0x3dc8b9b4be37d5ddU, 0x3c828c48bd09dad6U, 0xbcaa5a9a3e8a30ccU, 0x3e00791d3d707378U,
  0xbeb3cb873e939cd3U, 0x3cc460d1be16017dU, 0xbb8256323e397a9aU, 0x3d1b1e923e4bb740U,
  0xbd2e092d3d81831cU, 0x3d86f8273cc3b897U, 0xbdf4e33cbec03956U, 0x3e54fe75be7e8d01U,
  0x3e35c337be236908U, 0xbec666dc3ec4e390U, 0xbe1faa4cbd9578a9U, 0x3e00ef2d3e4ae130U,
  0xbd19f53abe4d8881U, 0x3daf7af73e28a728U, 0xbf067a853dd1b879U, 0xbd44b8fbbd599f4fU,
  0x3d9ff1f4bd629d96U, 0xbcd875fb3c9a199eU, 0x3b50173bbd110704U, 0xbda1feb33dd2db0eU,
  0xbe46f7843dc83ad2U, 0xbc999ec03e0aa08eU, 0xbde69bc6bd93da0fU, 0xbe1f33ff3e0a5cc4U,
  0x3da51aedbd82b290U, 0x3db390e4bd82c86bU, 0xbd4b66ef3d49cefbU, 0xbde351fe3ca0145fU,
  0xbd071fb7bd3853e2U, 0x3db016ee3dbfa90dU, 0x3dc3fc01be657cccU, 0xbce3de24bc876c2eU,
  0x3df0061b3d8c3d81U, 0x3e84dc50bd2d8560U, 0xbdb8169b3e00961cU, 0x3e73d6d1bdb01eb2U,
  0x3d0c8d35baa40966U, 0x3d34fd053dd052cbU, 0x3eb3a4d83b8018abU, 0x3dc228833e446010U,
  0x3e0c90f43c440d05U, 0x3d41f116bcf40783U, 0x3d5dad2e3d846a60U, 0xbd5535f63d8c8cd1U,
  0xbea341353d937c72U, 0x3d8075e1bdd2bc71U, 0x3c4ce6a5be3c77aaU, 0xbdff2adebb81119fU,
  0x3d229d4cbcda0a45U, 0xbd54045c3caf9168U, 0x3e275466bdfa63d5U, 0x3c90d7143e2d6dbaU,
  0x3e6feff3be52da1eU, 0x3e5d5653bdc9fdc0U, 0xbe593668bdfee8a6U, 0x3d84f2df3dc1659eU,
  0xbd1f57da3e96af78U, 0x3e944f953d8e794bU, 0xbd2d22db3ec6d995U, 0x3ebef8d03d5a6fe1U,
  0xbe46e31dbd4a0c8cU, 0xbe71db91be69b1d2U, 0xbe51e0703e9d48feU, 0x3de1e911bc825387U,
  0x3ecad38a3a5a41a3U, 0x3c8146d73cbf724cU, 0x3c75e5c5bdab2dc2U, 0xbde23b423e9d5183U,
  0xbf01d1e73e9abf2eU, 0x3edfa67cbe45dbd3U, 0xba73ee80be6468a8U, 0xbe1492013e889329U,
  0xbdb526053eb32835U, 0xbee96063bdc5c4a9U, 0x3e8902b23f001906U, 0xbe81879d3f147fedU,
  0x3d99f02dbe846418U, 0x3efac47bbec2cc7aU, 0xbe5d4c8e3e5620c8U, 0x3ea7e24e3e93f252U,
  0xbf2910f43df11b4dU, 0x3e3a9c74bd984d62U, 0xbed5b90abeb54eecU, 0x3cdad295be0b54a1U,
  0x3b78e5a93f189b96U, 0xbe214b1bbe6dbffdU, 0xbed701a23e589992U, 0x3dbf5837bd34c382U,
  0x3e82ea613e6b6bdeU, 0x3e82086ebefb1dfaU, 0xbe8ee4f0bef4cd4aU, 0xbdc425e0bec0a868U,
  0xbdf19e4b3e9a730fU, 0x3db56d813d849a06U, 0xbcefa480bc13b2f1U, 0x3e7631fc3e8d2c89U,
  0x3d3b83da3d9afd31U, 0xbc61e5ba3def895eU, 0xbe44f6d63d8dc677U, 0xbcbd8d08be8b0d66U,
  0xbdce72d8bd622bf9U, 0x3e85b39bbba012b6U, 0xbd139ce6bf0d2c0fU, 0xbd26519b3dc9d8d4U,
  0x3e367ccfbe492bc5U, 0x3c1ba9173e71c7d3U, 0xbe347ed03df78367U, 0xbc85d5e03db0b549U,
  0x3e801e69be8fb97dU, 0x3d78c3b83dcba01fU, 0xbdcb158c3d1a7c98U, 0xbbf00ee9bd3200f6U,
  0xbd833104be8ff5bdU, 0xbece51fa3e3c1b50U, 0x3e32da3ebdf2867fU, 0xbe49cedf3d09a848U,
  0xbd3cdbc63d8bd89dU, 0xbce1096fbd949e2eU, 0x3e52daf63d822f05U, 0x3d0688c2bcba73feU,
  0xbd8151a8bd334a31U, 0xbd20d1b6be4f42b6U, 0xbe10e8113d131506U, 0xbe063dc0bde759d1U,
  0x3d45459abe417beaU, 0x3de55c143e10ff9fU, 0xbe2c17a83dcfae66U, 0x3e1cf16bbcaf2a77U,
  0x3d82534ebe1809b0U, 0xbe2e6bb6bd13e0cbU, 0x3e033cc5bebb3c6fU, 0xbe1098f3be1dde0dU,
  0xbd67d6353c0c1706U, 0x3e06485e3e02b237U, 0xbe751bbf3e2229bdU, 0xbc67754a3da5f3ecU,
  0x3eb7c763bced0ea0U, 0x3e088d273d2c4effU, 0xbe17a6a4baf9daffU, 0xbdadb1843dc9c6b6U,
  0xbced223f3d9f511dU, 0x3e66e106bda32230U, 0x3dea30ad3dedaab2U, 0xbeea935b3da25ebbU,
  0xbe5cf6533e048ac4U, 0xbdbc523dbe7a8377U, 0xbe51b5b53dfde5afU, 0x3d52a894bdbf7966U,
  0xbd0150983d5e901cU, 0x3e5933573cc9a91cU, 0x3d3b7622bd28e4c3U, 0x3e353baa3e0cc02fU,
  0xbc8fe1693a2dda4aU, 0x3d99da77be5699a3U, 0x3c9801aabe9881dfU, 0xbe6896acbc0747c2U,
  0x3b5cb390bcaf01f8U, 0xbd16972ebd5df1e8U, 0xbe052dd1be52396aU, 0x3d7595993e285f1bU,
  0x3e8404b2bd4ed830U, 0x3d0f98203de12b4bU, 0xbe3c48333d255c07U, 0xbe5893753da7dea0U,
  0xbe55bc253e1574e9U, 0xbdd2e8d9bda46ba3U, 0x3dda65da3e1eaee5U, 0xbd57b0bd3e0ab16aU,
  0xbe3f29363e22beecU, 0x3de2cff83dc19a55U, 0x3b60de05bda9cbb1U, 0x3d9272e83e0caec0U,
  0xbdb5d0073dc14e42U, 0x3d4d242e3ca9f732U, 0x3d442ef3bd925901U, 0x3e5837593e0e37d8U,
  0x3e2e50b0bde92b17U, 0xbe3e1eba3d9cbf88U, 0x3e01838bbe29b3a5U, 0xbe1e9ec5bd6e2e77U,
  0x3daa537b3d90abf7U, 0xbc7ca869be931ed4U, 0x3d45ad41bc94b1cfU, 0xbb7c7a07be2845e2U,
  0x3e99723e3db20ca0U, 0x3e52efcc3e108c95U, 0xbe2ba8d23da6ebd2U, 0x3c758bc73eab945eU,
  0xbd004878bb8102ebU, 0xbde011913df41bb5U, 0xbe077e3b3c60a830U, 0xbdc230aabc62d9ffU,
  0x3e0c42cdbba4ea51U, 0xbd6729313d1ea87bU, 0xbe00423e3dcc1200U, 0x3d1f6d993d758e45U,
  0x3e01e8a63d09f97aU, 0xbb964e0dbc7d7811U, 0x3e3c0ec0be0e80e8U, 0x3d9c0252bd3a6d40U,
  0xbd50295f3d4efbf1U, 0x3ce61bc23c31aa38U, 0xbca55f3b3dea35ebU, 0xbdffbe843dd4ff9eU,
  0x3e61464bbbf032d5U, 0x3dc8b57d3e2f192aU, 0xbcf63bea3d018fc9U, 0x3da974493b2ffa7eU,
  0x3ce36497bd6e47c1U, 0x3a4f0b5bbd04ac5aU, 0x3e554834bd5e7bc8U, 0xbd8e5813bda5204cU,
  0xbdd3134bbd00e929U, 0xbbf103f7be64f861U, 0xbd884948be0e7e67U, 0xbeafffdb3d25cd93U,
  0xbd05cf5ebd5a9d25U, 0xbdbfe15c3db5456fU, 0x3e02f3153e74bfa0U, 0xbe10c68d3e2ab5dfU,
  0x3eb8827bbe1987baU, 0x3d369daebdbd7795U, 0xbe396bd63de2c12bU, 0xbd71f05f3ec23067U,
  0xbdfffb1e3ea29ce2U, 0x3edaf8053e3bb51aU, 0xbc0f0faa3dbc3461U, 0x3f0385b43abfef93U,
  0xbdc18581bdabf0beU, 0xbdf864febe776175U, 0x3a9aa0583edf84d7U, 0x3e90e491bcd4bd3bU,
  0x3df5a3ddbd43710eU, 0xbcdcb43bbe6f0e54U, 0x3d99d245be13d2faU, 0xbe1e05353dae25c5U,
  0xbccdf2cbbd9e549dU, 0x3e4a00a73dfe1ad7U, 0x3dcbc7f43e3ae5b4U, 0xba9090b73dfe1f0dU,
  0xbdd490a93dd9b87dU, 0xbdbda694bde7f92bU, 0x3e1075253d899be4U, 0xbe4b77eb3e5fb1acU,
  0x3d6a062cbe334c99U, 0x3ec893063e0187dfU, 0x3da8f48d3d9bca48U, 0x3d43a7423e517935U,
  0xbe87a4643e062145U, 0x3dce86863dbc73efU, 0xbe899bafbe329c6aU, 0xbd8f3da6be3da9c6U,
  0xbc6fca3c3e6da829U, 0x3daf4cc9be1d3a04U, 0xbd5c9af6bca8d756U, 0xbd3efc583de29277U,
  0x3e555aa43ca0e1b3U, 0x3e87a601be08e66bU, 0xbe025deb3d83d6ffU, 0x3c9879c0be2c3c35U,
  0xbe1c0ecfbea5e947U, 0x3e98060b3e7d5905U, 0xbead74993c87a899U, 0x3c4508f3be965824U,
  0x3e20488c3e1fc05bU, 0x3e183fd83ea20daaU, 0xbde306793df214e0U, 0x3e559fda3cc7bfe9U,
  0x3d0468cd3db02264U, 0x3e2ab900be32eef6U, 0x3ddf5ab4be6840a7U, 0x3e6a5e773dae8727U,
  0x3d7256863dad4b29U, 0x3dbb07c23e0c9b7fU, 0x3d804ecfbed4754aU, 0x3e8a746dbdba61d2U,
  0x3e4f611bbe4ea3dfU, 0xbe77e3a3bd0d828aU, 0xbdb3f103bd6099bfU, 0x3e39738e3e668df6U,
  0xbe946e1ebe208413U, 0xbdb460b2bdd41494U, 0xbd8a1e96bdbd1334U, 0x3de644643cd0cdffU,
  0x3e4e62ec3c4f6a2dU, 0x3d2f6161bdcdf808U, 0xbd8c6ef6be198787U, 0xbcccf4d33caa860bU,
  0x3e577bcc3dfe1ab8U, 0xbd4892a8bdf3b0b5U, 0xbd30cbe13d104049U, 0xbd0c054ebc111a02U,
  0xbe608b5ebdb4f061U, 0x3e1a4edabd4c6bdfU, 0x3d56687dbae5abafU, 0x3d6876283dcaf4e4U,
  0x3cb8b65d3e0b91e3U, 0xbc39dd5dbe092bc5U, 0x3acfc9c63e5a6e6bU, 0xbe0c2b82bc3696daU,
  0xbdb1721abd0fdc18U, 0x3d9d1803beace660U, 0x3c5f59373e856312U, 0x3d465ac83d955355U,
  0xbdd349e83e291394U, 0xbe128bb4be0b64c9U, 0xbd96c768bd88a295U, 0x3d73c492bec0fe24U,
  0x3ed543aebe319ca9U, 0xbdbe91363d1a1652U, 0xbd4a57123e8819daU, 0x3db252ecbdab7bfaU,
  0xbd69b565bd31810cU, 0x3e65e935bc4e9aa3U, 0xbd899789be13537cU, 0xbd8c9e22bc24e559U,
  0x3ebf652b3d624221U, 0xbdd9dba73d33e41fU, 0xbe19c0c6bdc724f4U, 0xbcd5e6213e0edf19U,
  0x3ec15144bd75a08aU, 0x3d507d4c3ed5206fU, 0x3e0295b83ea5821aU, 0x3e4b8b59bd21ce6bU,
  0xbe856d2dbda46c8aU, 0x3e089618be81d8deU, 0x3e97e038be0ffc6cU, 0xbe0fef6d3ce5593cU,
  0xbe569e0fbdec2232U, 0x3df3125d3cbed757U, 0xbe3ce6783ea5393cU, 0x3e0062c73e57f73aU,
  0xbdfd13ff3dde1562U, 0x3d753410bdfe6bfbU, 0x3e4d5f7d3ea849f4U, 0xbe458c2a3e09dfadU,
  0xbdd39cf43e37ca9dU, 0xbedfc35ebe8f3c4bU, 0x3e3446c23e04a691U, 0xbd261ff33e7b49a5U,
  0xbe9226f2bdc3d626U, 0x3e94372e3e601b90U, 0x3dd50c473e470aeeU, 0x3dbf67bf3e5bc1ddU,
  0x3e8f8b33beaa8eb6U, 0x3d8b7fae3cd6b045U, 0x3cd1f308be2cb956U, 0xbe8e7b30bd4612ffU,
  0xbe7d51b93e845e23U, 0xbd130432bea27d91U, 0xbc3ddb213d6000dcU, 0xbe0a47563d0c9e55U,
  0x3e2dc6603e05d0d9U, 0x3ea357d13d3a02c1U, 0xbe32a172bd5dae99U, 0xbd2b31e6bda6490fU,
  0xbd47ade93dd00364U, 0x3d9291393ddf7765U, 0xbdad548c3cd31707U, 0xbdadc82ab944a619U,
  0x3d2bbae6bd4c65f5U, 0xbe124d843e163923U, 0x3d2b472b3dbbb4b4U, 0x3db469d93c90a207U,
  0xbe8337c4be00588eU, 0xbc0cd0e9bd0af6b6U, 0x3e0ae3bc3dcd626aU, 0x3d1d6475bd47c280U,
  0xbdcd2bbcbe1c7d31U, 0x3c6efea3bad9588dU, 0x3d896f7dbe44571cU, 0x3d568d0abdcc54d9U,
  0xbd463300bd6e0d87U, 0xbe46f1923e82020bU, 0xbeab87043db2f048U, 0x3da91ef73de09ef5U,
  0xbb837f64bd1b4fcfU, 0x3e07b8ffbe3b8577U, 0xbdebb55fbe41b26dU, 0xbd01142bbe768abfU,
  0x3dd7397d3dba3a23U, 0xbe085d073ca27c48U, 0xbc762bfabdc03d3aU, 0x3c1d79ac3dc6c098U,
  0xbd47e0e2be5f57bdU, 0x3e42ef633de4d754U, 0xbdeb5066bdb851eaU, 0x3d4963f0be877456U,
  0x3dff11e53db53289U, 0x3d26f4d93d25b65dU, 0xbd58adb8be31a54eU, 0x3db96a293e15cc22U,
  0x3e4bcaf63d888d5dU, 0xbde389c33d72457eU, 0x3cf8ad133e799384U, 0xbc36b2c8be76886aU,
  0xbe7e8150bd05cf6dU, 0xbeaae12cbe652c86U, 0x3e697f65bd8d969dU, 0xbc8639d13d843252U,
  0xbe29e690bc43fb27U, 0xbdb253333cb33eb4U, 0xbdb6c77e3da2a99bU, 0x3d38d8f3bd89d2baU,
  0x3ddac45e3d50150eU, 0x3e1e89293c0d6be4U, 0xbe34e510bcda166fU, 0x3d985c2ebdbe6b01U,
  0x3e0d603e3e52c05dU, 0xbe12eb57bd004dafU, 0x3e72e631bcdadc51U, 0xbe2ecca83e9bd2fcU,
  0x3e1bc5d9be34ab18U, 0x3e3405f7bdae0ab5U, 0x3d8c88553ea23529U, 0x3ca21c643dd3ce01U,
  0xbe1b0ac63e7b29b9U, 0x3e1e6c1dbd657f5fU, 0xbcef5435bc91d8edU, 0xbcb0e7c83d617c4dU,
  0x3caa2fa23e6efcccU, 0xbd2a57553dcc6332U, 0xbd451642bdd9bc75U, 0x3d902da83c87e43dU,
  0xbe2fc5b03e7e1c2fU, 0xbc6f390bbd6e24ceU, 0x3dd50f16be39f436U, 0xbda29dfcbca9112cU,
  0xbe385cadbdec5d19U, 0xbddcacdc3d9fd7dcU, 0xbd856a87be1f2389U, 0x3aaa0563bd625f26U,
  0xbcb099e7bb0ffebeU, 0x3bc1bbd93e26bbddU, 0xbd96ee0cbe04c14dU, 0x3dd8aafbbd505a37U,
  0xbd22d9c2bd4227bdU, 0x3b0e7ddbbe160629U, 0x3d8c59863e67ff71U, 0xbdfaba583c1b6413U,
  0xbef0d4e8bd5e43a8U, 0x3d1c1998bcfd8c8dU, 0x3d8194ce3c0ecb5eU, 0x3e105194bd7e3e53U,
  0x3c6866123ce758aaU, 0xbd04d6fdbc975552U, 0x3cf8beb4bc991d50U, 0xbd7c64fa3cfae75cU,
  0x3d1f1473bda1608bU, 0x3dcd7f00bde2925bU, 0x3e71d0ca3b47f871U, 0x3db806f63dae1fefU,
  0x3e1dc0e4bce7b605U, 0xbdffbae73c49786cU, 0xbd77d49ebddf1fedU, 0x3e2e38b33dd1f536U,
  0x3da15bff3dec9d9fU, 0xbd0f49a33c0a316cU, 0x3e35cf87bde48f09U, 0xbdb1284d3d8b4cb0U,
  0xbe88d98e3cce7424U, 0x3e241c553d087eb6U, 0x3d726b5c3e8ee8dfU, 0x3cd03b63bd36f401U,
  0xbe74a8fabda33186U, 0x3e332c00be48c03cU, 0x3d82769fbdf3efdaU, 0xbe3e53b6bc13c8bfU,
  0xbd3b1b013d383379U, 0x3d6e38d93e30238dU, 0xbe2f22fd3b964721U, 0x3cb59aa5bd218c93U,
  0x3daf484b3dd1bf86U, 0xbcf5a1e5be2f5d54U, 0x39923dbbbdc226a4U, 0x3db4ffa9be768598U,
  0xbddee8f73dc3df13U, 0x3e4f7524bd1c1a5cU, 0xbd27d5c6bdb377e3U, 0x3e165965bcf1ac20U,
  0xbc9f3c493df99f1bU, 0xbe420ce33b8ba63eU, 0x3e54e1473d7b3d40U, 0xbcb3c78d3ea30557U,
  0x3e853fc6be545348U, 0x3ec2ee3fbcd90986U, 0xbe4a28353e444b0aU, 0x3ccecd033ce14900U,
  0xbe07bfdf3e67392fU, 0x3db9864ebd4a2be8U, 0xbe3729b53d2eeb11U, 0xbd19e9913e24b660U,
  0x3c801c6e3e080c6cU, 0x3cea5ce13e6bd591U, 0xbe288d3cbe65237eU, 0x3d062876bde91ef6U,
  0xbd5c1da53da0754fU, 0x3ea4048bbdc66621U, 0x3e8b8596be72e93cU, 0xbd1a8bd9bdaab36cU,
  0xbe757d0fbc8fa7c8U, 0x3e4807c83e2729c7U, 0xbd4f11b43d9cd54dU, 0xbe851860bd59266cU,
  0xbdd1f9903e839dabU, 0xbe82173fbe1b6e92U, 0x3e5eac3bbc4d85ddU, 0xbe144c8b3e4915cdU,
  0xbe2c9ec7bde26bdfU, 0x3f04cf98be1abda2U, 0xbe16633d3d5e7c59U, 0x3e7d01823e6f851aU,
  0xbe3dda603c6c5405U, 0x3ded5c7cbe1ff317U, 0xbe72508fbe6e1c6fU, 0xbc50f646bdf9d0ffU,
  0xbe2b0b703e90c472U, 0xbe05b5b5bcb06c6aU, 0xbe0d24fc3d8e6ec0U, 0xbd37ebc23bb83e2aU,
  0x3ed760143e767f71U, 0x3e9778ba3cb84b0fU, 0xbe4e7f9cbe20e333U, 0xbd811f57bde5ae2fU,
  0xbd4d5d51bd78cec6U, 0x3e332c7fbe984e48U, 0xbe388c993d1c7f0cU, 0x3c15ab163ec8db0bU,
  0xbe80565d3cb596b9U, 0xbbbc34003d3f3351U, 0x3da39593bdde3b75U, 0xbe9bc6a53e273d9cU,
  0x3eb607713db7da58U, 0xbe13bb903e7f4f3fU, 0xbe16673f3e93d626U, 0xbe33871dbe85470aU,
  0x3e1210793e965be6U, 0xbc8870d53e870080U, 0xbd56dbfdbe266563U, 0x3e522dbdbdd7d5bcU,
  0x3db1f0b3bad9eea0U, 0xbea04d853e3202e9U, 0x3e5ce12dbe3846fbU, 0x3e69e082bdc836deU,
  0xbdb184003b5b5d12U, 0xbeaba5e83d0f35e6U, 0x3c36465b3e027698U, 0x3d86306fbd0003d4U,
  0xbc61c11f3e8d9aa1U, 0x3e0b43bdbd62226fU, 0x3dcbd918bddb3b3fU, 0x3e0e4841be183e30U,
  0x3ec8546f3e214a63U, 0x3d56edc33d718f6cU, 0x3e03ccaa3dde9549U, 0x3dafebd63d68b8dbU,
  0xbebf4a803da86b56U, 0x3e9ee363bce47a8bU, 0x3e0691513dcb4eedU, 0x3e376a1c3e01615fU,
  0xbe32f061bc9312feU, 0x3da40751be1ebe07U, 0xbd8591e8be7ae717U, 0xbe93f9acbd8650afU,
  0xbe7b7eecbd093f97U, 0x3df7b1d03d1f4a7cU, 0xbe46b2053e8eb890U, 0x3b85f7eebdd5547aU,
  0x3d85ca863e2c9460U, 0xbcd3dec0bd774373U, 0x3d0908d1bdeddc78U, 0x3e4e03d53dbb5e51U,
  0xbd71a7c13e39311fU, 0xbb4221e63dee85dfU, 0xbe0afc873ad0ce13U, 0xbe050161be0a8d0dU,
  0xbe3221d6bc903cb3U, 0xbe7d171abe590540U, 0xbdb5301ebd9a60cdU, 0x3def02b83cec7fffU,
  0xbd1b18423da2a813U, 0xbdecc5c63cfaea09U, 0x3d1dbe79bd77a820U, 0x3dc9904b3d8da45fU,
  0x3dde9b863e0f7869U, 0x3e7b1f383d6dc963U, 0x3d063f533db61036U, 0x3e3110f1be0a81d2U,
  0xbd7c4fee3cb75406U, 0xbe15ebd63e25143cU, 0xbc7ed3333de4949dU, 0xbd330111bddf6426U,
  0x3d11a2ec3de38991U, 0xbc29bddf3dad8291U, 0x3e8415ca3d33f15fU, 0xbd333a22bcaa4965U,
  0xbec7f55e3e05ce13U, 0x3d3b3678be5dcb7fU, 0x3df21b063d6dd4ecU, 0xbee2a45f3d481eb5U,
  0x3cb9b3633e7844efU, 0xbdce262abf2113dfU, 0x3df7be7a3e569ef4U, 0xbe8ce9b83e9717e8U,
  0xbcba3e133dadb9d2U, 0x3dac14a13d0b9304U, 0x3c0c1db23e284d04U, 0x3d8ccbfc3d618062U,
  0xbd87aac13c68699bU, 0xbd8215c13d31f6cfU, 0xbd74e82fbe910a29U, 0x3d5dd35b3c1d6efaU,
  0xbe197b7e3cfa2d19U, 0xbec1b352bdb916cbU, 0xbd7c6a713e851ae8U, 0x3e4aa5a33ddaa125U,
  0x3f1838d73def618aU, 0x3e29e427be115a76U, 0xbe2ae5c03d9cb262U, 0x3db79d23bbe29cd3U,
  0x3dbe749e3e34a047U, 0x3e5a24cd3e4444d5U, 0x3ddcdff2be48aa4cU, 0x3e285c63bd839ca7U,
  0xbde79d163e91ae70U, 0xbe280d7abe42dfaeU, 0x3da957823d688354U, 0xbe16f1383f2677d1U,
  0xbc4ac29abe0d5b1dU, 0x3f025d8bbdd8ceadU, 0x3d93043ebbefeb18U, 0x3e16cfc63ec4eda5U,
  0xbe973f553db6c9b8U, 0x3e447d62bded783aU, 0x3d192a7f3df38248U, 0x3d4c7562bc01488cU,
  0xbe343d7a3ec842feU, 0xbe44555e3e085e95U, 0xbe309a003e56df3fU, 0xbcb81b31be82bc4fU,
  0xbe509d5a3ef31f85U, 0x3e6217d03e3f7c91U, 0x3e3fca8b3ce7e0d5U, 0x3d3ede41bd398e0aU,
  0x3c770a1d3ce9b078U, 0x3e26f008be213873U, 0x3da7a767be080272U, 0x3d322f473da40453U,
  0x3e4a1ee13de4a980U, 0x3da9f0f0bda7ca5dU, 0x3d9c70063e27e00aU, 0xbdebd0b53e866c75U,
  0xbaed893bbd311033U, 0x3eadf474be750995U, 0x3dcad6203e915c8eU, 0x3d3f41be3e864d27U,
  0xbe8db5693e3eb1e3U, 0x3ddbe408be21a16cU, 0xbdc65fc1be589e99U, 0x3c2df7aabcf47126U,
  0x3da6d2593dc4ea36U, 0xbcc767843e4bbd1fU, 0xbe773be73e517611U, 0x3c83a318bba829b7U,
  0xbcf3f6d83ea5fce8U, 0xbc94c4d9bea19394U, 0xbd4b9b4abe674d08U, 0x3db5d797be9e8f08U,
  0xbe249c953d991908U, 0x3cc91a30bda16cecU, 0x3ddfe9143e2eff93U, 0xbe244ac03e73e425U,
  0xbdff2a823e51fdedU, 0xbe510bdcbe3ddcc3U, 0xbd2bf93cbc82728bU, 0x3dcb466ebb56f04dU,
  0xbe72896fbd990dc8U, 0x3d9161583d8c0059U, 0xbd88c40fbdd07c7fU, 0x3dfb5fe4bd388a7eU,
  0x3e026afa3ccbdac2U, 0xbe611bc93c52036fU, 0xbdd42251bd211caeU, 0xbd73befc3cb417e1U,
  0xbc0a0c90bd42388cU, 0x3d9a683bbe2b80dcU, 0xbe2aceb0bd83a95eU, 0x3df5fe05bdfc69f8U,
  0x3e1102cf3dd009b0U, 0x3e3983ccbd0f525eU, 0xbe285c6d3c6a63b7U, 0xbd2ba49c3cc4d4f2U,
  0xbe7e6a973deb2a6eU, 0x3d5fc1c0bdd06faeU, 0x3dad63203bf81405U, 0x3e0c56223eac7b3aU,
  0xbca0caf43e5398c6U, 0xbc225359be425051U, 0x3ccda06c3ddcb9a5U, 0xbe9c48aa3cde0318U,
  0x3e870ebf3d8b9523U, 0x3d9faaddbca93b47U, 0x3be13d0e3ba67855U, 0x3d8dd02ebcf4a2a9U,
  0x3bbe39713e97b8a9U, 0x3d8a2c523e6afcf2U, 0xbc97ae533e058616U, 0x3d8f9aea3c93d8cfU,
  0xbec361483d248642U, 0xbe101741bddf29e6U, 0x3e6156813d01cf29U, 0x3e65d4cebc965e1aU,
  0x3ea0b3d0bd5b5991U, 0xbda4983c3c27a5c4U, 0xbd8f9021bd37f305U, 0x3be760403db94e9dU,
  0xbe19a69a3dae5fd7U, 0xbb3a47f7bdc747cbU, 0x3ddf8fe13e280522U, 0xbe2780563d2ce50fU,
  0x3dcfc06b3d04352aU, 0x3d04209f3d4c2568U, 0xbdbf3cf23e683c0fU, 0x3db67be2bc6529c5U,
  0xbbd5952ebe438d63U, 0x3e1f6ff23cfa349dU, 0x3d5861d5bd3ebde5U, 0x3e14c7393e533180U,
  0x3d6057cebdc3b833U, 0xbc6b2308bde9bb03U, 0xbd8a896bbe886edaU, 0xbe05b626bd7811f8U,
  0xbe9487bb3d6bf204U, 0x3cb61c8ebe4b757eU, 0xbe3aefae3dad9da4U, 0xbda29cbabbe354c5U,
  0x3e2848733c490f9eU, 0x3eadb364bccdd51fU, 0xbe424231be32fb2aU, 0xbcc9a3bebda910c4U,
  0xbec31d993e2b7decU, 0x3b2b00c1bde4e7e7U, 0xbe5db9ad3c94f996U, 0xbd34fc03bf818d34U,
  0xbd84de0dbce7c0e2U, 0x3dcf4f72bd6d3a17U, 0xbdc99816be313ac9U, 0x3eee876a3deb139eU,
  0x3c0c97b23e09a3f2U, 0xbc18cf33bdb6ee60U, 0x3de3fd87be79484dU, 0xbc8a590bbd95c892U,
  0xbf108154bd9d285fU, 0xbd825f643ec69a64U, 0xbcb7cb32be366495U, 0x3e886c743d25ec7eU,
  0x3dbe26203e22e6fcU, 0x3e3bad3b3ee05f9dU, 0x3d7598d8bdce33ddU, 0x3e590d603e76e6f1U,
  0x3ed1d7f7be6c4109U, 0x3c36bbabbe99ab4eU, 0x3e2c4b693dfa074fU, 0x3e83a3d93d237923U,
  0xbd1675f3bc59418bU, 0xbd763026be148b76U, 0x3e8358333e6775fbU, 0xbe2b2d113d9e6694U,
  0xbc78f5f43e67879aU, 0xbe5a7ddfbe0bfb0cU, 0x3e22a3cb3db49815U, 0xbe2a05b93e286dd4U,
  0xbb022b09bd3d5bdcU, 0x3db4a9933e581a6aU, 0x3de67776be25e56bU, 0x3e5a49db3e1e9959U,
  0x3e30b5a5be5908a7U, 0x3dfb19713d521cb2U, 0xbd59e0c0bea688c7U, 0xbdc213ecbe0b9c60U,
  0xbe35f4d23de48825U, 0xbe0cfb4fbe52fb14U, 0x3e3488183e00b13eU, 0xbd2855a9bd85659fU,
  0xbd2d91d23e4eead9U, 0x3e5239d03cb8c2ceU, 0xbd87a1bebab99811U, 0xbb1ab8e6bec004acU,
  0x3db27fa03de387d0U, 0xbdf2f161bd076f16U, 0x3db791a93e272914U, 0x3df425bb3d8857bcU,
  0x3dae44453c83a3bbU, 0xba7d0b583e687e77U, 0xbdaeb12abde2961fU, 0x3e09a8953d66dd4eU,
  0xbe9340b3bdc177c7U, 0xbcb6e8413e283a0dU, 0xbd8ce994be25e98dU, 0xbd353a7c3d4c9b5bU,
  0x3e0cc343be802cddU, 0xbd5b4aa1bdda96baU, 0x3c2bae023c7b62a1U, 0xbde1e714be287b0aU,
  0xbe946b6c3d8b3588U, 0xbcecff5cbe55d4ecU, 0xbd3228b8be2628c1U, 0xbe4484e83d4cd3c6U,
  0x3ce8ac003b87aff5U, 0x3e168fc6bd170ed6U, 0xbd534fcc3989d965U, 0x3c8baa423e2d4d21U,
  0x3d871498bef3a47aU, 0x3d40728d3e3015dfU, 0xbec62fe6be132117U, 0x3e53c4c7bec0c7a1U,
  0x3e2438743ded585cU, 0x3e3e90b3bcb93a99U, 0x3d93fb29be178cdcU, 0x3e179dabbeb7d3f5U,
  0xbe979dd43e4e088dU, 0x3eafc9acbd9c4ed5U, 0xbdf925ccbe9531e2U, 0x3e08f73cbdd6f084U,
  0x3d971e9abeadeb9cU, 0x3f17ff693dd6254fU, 0x3e0f1f713e026281U, 0x3d503f5ebe0942dcU,
  0xbbdfc317be432318U, 0x3dbf1ce8be93730eU, 0xbdfdcb613d143dddU, 0xbc0faa4e3e405335U,
  0xbe59d74fbdc673dbU, 0x3b426415bdd4d572U, 0xbd83fc3abe91257eU, 0xbd9166fa3d9828cbU,
  0x3ebfb355bed7e314U, 0x3eef6b8abeb93c39U, 0x3d5d2dad3dd3c1faU, 0x3e41a8e93d9fa73dU,
  0xbeb36f693f2ce4ffU, 0x3f09f057bdfcc3b9U, 0x3e89d6c83e35be24U, 0xbe58b6d83ec97e2aU,
  0xbe4b472bbd07b3e5U, 0x3e37aeaebe60c623U, 0xbe7a15bb3dd50f16U, 0x3f43f676be98b007U,
  0xbe91af423d11c308U, 0xbde09d583e016646U, 0xbdb8cdf03d233659U, 0xbeac61133ec51d5fU,
  0x3e22e5b73ef18dcdU, 0x3e908fb73dfd4dc1U, 0xbdf4db133ee1b519U, 0x3e66c2c0bc6dc75fU,
  0x3c540a233f08e1a9U, 0x3f37ed15bed059abU, 0xbe06ba75be7c1d7aU, 0xbebbf577bea3c880U,
  0x3e23ec37be2ace0aU, 0xbdc6068b3deb0aacU, 0x3d15408d3dd79a7eU, 0x3e4e32d0be97f6ebU,
  0x3e02b92abb161273U, 0xbd4ca2d83ded9f6eU, 0xbc2c6b8b3ccc9df4U, 0x3d8213e03dd2ced4U,
  0xbe398c4fbd935a83U, 0x3de1107a3df083cfU, 0xbd2cfff93e7f5dbfU, 0x3e279fcc3a7a4881U,
  0xbe090180be8d434fU, 0xbeb7a6bbbc1329dcU, 0x3c9fb22a3d61b96bU, 0xbe410eef3e30eee3U,
  0xbe81034d3e438c18U, 0x3eb7f5c5be9e7d5cU, 0xbde453f7be0a5403U, 0xbb104e023d3383b7U,
  0x3e2b0b9a3e4bfd0dU, 0x3f02b4843e23553eU, 0xbeba5cf8bd024006U, 0x3e2760d63d66be00U,
  0xbe2082b53e02dca0U, 0x3c49202c3e11b457U, 0xbe231b25bc18e193U, 0x3d9b7d173cb38fb0U,
  0xbc78238c3e44caceU, 0xbd98466abe1ef98fU, 0xbd7c6db2bdac377dU, 0x3d837b4d3d8c5203U,
  0x3e39e02ebc74a6d7U, 0xbc8dc087bdd0d0a0U, 0x3e0c64a9be5d2be9U, 0x3da2d7433dd3b497U,
  0xbe9b511dbdd2bf35U, 0xbe1e74083dc0a5c0U, 0xbe5662fcbd8fdecaU, 0x3d7eb19dbd654978U,
  0x3db189e9bd836a59U, 0x3dcdc2bd3dea5294U, 0xbe2e8bff3e3c8237U, 0x3dfcdfeebc9505f6U,
  0x3ba8622cbe023f24U, 0xbe118ea73cdfcce6U, 0x3daa1d2ebc7a2cb8U, 0xbd1311163d1b60f8U,
  0xbe5407f73e0c1e0aU, 0xbdebc4813cb80df6U, 0x3e80546e3dac6f38U, 0xbe84422c3eb28853U,
  0xbda8c0ed3e039335U, 0xbcc540c0bdeb0604U, 0x3d93e6eb3de1e3a2U, 0xbe001d0bbd98626fU,
  0xbe7c7dcfbe00699fU, 0x3dd2c67abd24ce5fU, 0x3d438f0cbdbbd336U, 0x3e643bf03da42c62U,
  0xbddabfb2be8f4e94U, 0xbe5cc8413e16eaeeU, 0x3daf2fab3d268f36U, 0xbe53012fbe4233f4U,
  0x3c6cd1873e7248dfU, 0x3e7834f9be832320U, 0xbd9bbdd63d2d9bc3U, 0x3db75ce8be397d48U,
  0x3ebf6da63e714b09U, 0x3eecd3353e1f15b8U, 0xbea563593ce56612U, 0xbe3927d33e655895U,
  0xbe7b7b47be291ad0U, 0xbde5f799bcf53f4bU, 0xbd92b3c3be0c9bf7U, 0xbdb10b3b3e842a73U,
  0xbe58c1953d5fa71dU, 0x3d8ea7b6be489f6dU, 0xbd085974bd8a3565U, 0xbe0499383e83afc0U,
  0x3cff681dbe0860efU, 0xbe973dce3d5983daU, 0xbe19d37f3e3704e3U, 0x3e83a236be204e3fU,
  0x3c8ace7e3c4bf2c1U, 0xbdeaee12be335f0dU, 0x3d6cca133e09ed74U, 0xbda2e60e3c4856f7U,
  0xbea4bf4fbd86b82fU, 0x3d9cac03bdc1bb4fU, 0xbb22a6123e881e4dU, 0x3cd149013d4db961U,
  0x3e0fd8983ec384d4U, 0x3f16f1bc3e293b99U, 0xbf01e6773e36c7cdU, 0xbdac2dd83e5cffd9U,
  0x3e1d0e8bbe97b671U, 0xbe12bff13d2a4a13U, 0x3e0d1a0e3d6f8a97U, 0x3e105d773b7dbe79U,
  0xbdef81f83d3986c1U, 0xbe046af8be26d6a5U, 0x3c8411bfbdaeedf1U, 0xbae2463e3e8ecb5fU,
  0x3e37bfbdbde25458U, 0x3d706087bdf32795U, 0xbd9bd437be4a5e21U, 0xbe04179fbd7c1eedU,
  0xbefeb9f7bdb2c775U, 0xbeb5ad173e5547c4U, 0x3db5be153d28ea38U, 0x3d6f7f903dc27eceU,
  0x3e906a7dbb93748eU, 0xbcd9f3353de88da8U, 0xbe860115bd7ed65aU, 0xbce173b83cea2b3bU,
  0x3e09bea9bd437aefU, 0xbdef224abc8d5ae9U, 0xbd276c7c3da1d732U, 0x3dbabe053d9bc2e0U,
  0xbdbaaccc3e24859cU, 0xbcfe0c83be64ccd4U, 0xbde584ff3d2d62e4U, 0xbe79c6ebbc9d2b14U,
  0xbd2de284bdd597d3U, 0x3c4a5626bd8f27b0U, 0x3d74de1f3d40dcbfU, 0xbda32d113dd6429fU,
  0x3ae0a2ab3db68608U, 0xbc627e953d659282U, 0x3df6b6f53e23826eU, 0x3d810c5ebe099b8cU,
  0xbcd034e93d551b62U, 0x3bad92083e499bddU, 0x3d7fa1f23df1b1b7U, 0x3e6c69c63de999e2U,
  0xbd51a14a3d93ae25U, 0xbd80ee673d58d020U, 0xbd5c93193e0c9041U, 0xbcab4f853dae7976U,
  0x3d748c853dfba0f2U, 0xbe189ed6bcb659faU, 0x3e29aeb73dbc4cc7U, 0xbd7ac64c3de9df80U,
  0xbdf5024a3e2efb84U, 0xbc8cac163ca480c3U, 0xbd22199fbd2ec362U, 0xbd93c677bd99a9b7U,
  0xbe23d783bc3c66daU, 0xbd0a643c3baa5c50U, 0xbd6d3edfbd869c8bU, 0x3c66e9f5bc908bcdU,
  0x3d12262dbe125ad2U, 0xbdb10eaf3ceb75d7U, 0x3c862c4cbd0f4c53U, 0x3d4a4d5ebdf060e2U,
  0x3cb27d7e3da8107cU, 0xbc69bb6cbe31a99eU, 0x3ca4d16b3d0e22e9U, 0x3de187a53d4e4fefU,
  0x3db570cebc5a6e94U, 0x3e133a2abdd82912U, 0xbd356b61be163892U, 0xbd2f97adbd79f38bU,
  0xbe6c451b3d91ed5fU, 0x3cfdb668bc832143U, 0x3da70bcb3d58e892U, 0x3d561452bcf5554dU,
  0x3dcb7d983dc03cb9U, 0x3e371865be0a4b68U, 0x397a5fbbbd863149U, 0x3de89ecb3e6d05d5U,
  0xbe85c9ed3e843cfeU, 0xbe0664ebbe08c646U, 0x3de1c065bdc6edceU, 0x3e6daafb3d7b1deaU,
  0x3e8469eabe305712U, 0x3d5903a33e54babeU, 0x3d42cdb03e69b1f8U, 0xbe10ecb8be89bc0fU,
  0xbd62f3d43e6a4e94U, 0xbe75bf92bdb8626bU, 0x3eeba813bdea3520U, 0x3e8b257c3cddfd6dU,
  0xbe8e4105be34c5dbU, 0xbea25d74be1a1765U, 0x3d80e6f3bd869934U, 0xbce3711a3b809e11U,
  0x3d3574ca3c45c9b8U, 0x3e7e06a23e6a8578U, 0x3c85b8cfbd952de5U, 0x3da34eb63e24c816U,
  0xbd9a36e03dbc913dU, 0x3e1e3c9ebe24d8e3U, 0x3cdb9c39bb7f89edU, 0x3db850333d052cb3U,
  0xbd99a2383e4aeb84U, 0x3da3665cbbcb4765U, 0x3e0ae5663cbe2a31U, 0x3e8f37bfbdabf3b3U,
  0x3e3d03983cdede33U, 0xbd98548dbc298e11U, 0xbbffd3c73d524c01U, 0xbe05a6db3dafec34U,
  0xbcfe95763c0f98dfU, 0xbc272e18bdd62a1dU, 0xbd1dbbf93e2a42bbU, 0x3c2d214f3d35e15fU,
  0xbd49667bbe8d7d39U, 0xbd46b3ad3d1ee03dU, 0x3e1e061f3c4f8db2U, 0xbd9d3e32bc9c11a0U,
  0xbce465f93c22bd7bU, 0x3d9fef3a3df3727cU, 0x3cbab427bd5c9d24U, 0x3da104f83d9bfca2U,
  0x3d7401d7be650b05U, 0xbe8412f03e8bfc5eU, 0x3ea57186bd64eb1bU, 0x3e8660a63e20fcdeU,
  0xbe11c4873e07fa46U, 0xbe56d306bd1995c4U, 0xbe3afbedbd04201dU, 0xbe53bab2bd057b29U,
  0xbdd26256bb44a5b1U, 0x3baf98d93e8e23cfU, 0x3e242cc73e6089bfU, 0xbdfa47debdc40d9dU,
  0x3e4f3af53d781aa6U, 0xbd206c013d44e22bU, 0x3d0605893d169fe2U, 0xbc4595c2bde13b72U,
  0x3e959de33d95a0b7U, 0x3bd5292bbcf01184U, 0xbcd5204d3c88c131U, 0x3e2e899cbd4ade8cU,
  0x3e1c389fbdf1a287U, 0xbe12e70dbdafc7caU, 0xbde16de8bdbef234U, 0xbcfc4aebbda2642eU,
  0xbd8347b7bcd86cd7U, 0xbe2001773df4f7e0U, 0x3d52fc4b3d1d84d8U, 0xbd2890893e05739cU,
  0xbe0df9b53d1f83f0U, 0x3e0d99fa3daf24e2U, 0x3d8ef3ec3cd4c8faU, 0x3e16c5e6bd9766fbU,
  0x3e1e0e02bcd108d7U, 0x3d7a09623e33e00fU, 0xbe0ae5293dc2510bU, 0xbd958cffbdb69f84U,
  0xbdadd6ab3de2403cU, 0xbdf9b474bd709c37U, 0xbe10ca103e60461eU, 0xbdf6a82bbd8393e7U,
  0x3cb882d43d3c0381U, 0x3e11e4e93cf289daU, 0xbe1b71713d824d14U, 0x3d9a1eb43e11abd8U,
  0x3dc00ab63db1fe3fU, 0xbd017ee3be87af52U, 0x3df61261bd125697U, 0x3e36f8103d6017b0U,
  0x3e055a31bd234698U, 0xbda2d81abe42afc2U, 0xbd9e35aebe2b7954U, 0x3e347c403e17648fU,
  0xbd95c6993e431cafU, 0xbdb456b3bdbd339aU, 0xbe06ab213d8cc087U, 0xbcca4acb3c858b1eU,
  0xbd48b4e53dcec544U, 0x3d8ed1ab3cd225d2U, 0xbe1712413d890a56U, 0xbe7d58d2be48733bU,
  0x3c94bdeebdabe39dU, 0xbe1aa11fbd7596d1U, 0x3ddd88e2be32d048U, 0x3e54b44f3de1bff6U,
  0xbac346c0bc23fe5eU, 0x3cc53f96bd97665fU, 0xbdc5e756be481e2bU, 0xbe18a1abbd740a09U,
  0x3d33ac0ebe1cf389U, 0xbd4d2470bdd09c01U, 0x3e3efbf33d0665c6U, 0xbd73a2ff3d3cc3a9U,
  0x3d1d36de3d1e1e6eU, 0xbe1965033df822c6U, 0xbd2c9d9abd6782f1U, 0x3e0b204f3d3c08a3U,
  0xbc9dc0253d92640aU, 0x3d9e68ee3e6c60c3U, 0xbd24617a3e3eea0cU, 0xbce7a3dfbce2ceccU,
  0x3d9be1433df1c0c6U, 0xbd2cdb5bbd78234aU, 0xbd5a0300bd3977ceU, 0x3d30fb3f3e68612aU,
  0xbc036a0f3da45523U, 0x3d04d522bdae3008U, 0xbc6550f3bc03e01dU, 0xbe14ed3fbd6c5f0dU,
  0x3d12ac313d825893U, 0xbbf3138a3da696a3U, 0x3d7e3e23bd43c788U, 0xbe01ad0f3d1d6da0U,
  0xbc015e103cc8f3fcU, 0xbdab80e83dec3539U, 0xbd32490ebdb77e6fU, 0x3de25213bd82f9ceU,
  0xbc958292bd967c0bU, 0xbe93cdb63dd424ceU, 0xbd57bd42bd8d048aU, 0xbc958b04bea6c4bfU,
  0x3dcf9aa23cac3fd3U, 0xbe2ab3143d932df2U, 0x3d5775d7bd4e2e00U, 0xbe588a53bced5511U,
  0x3c93e3e33dd55181U, 0xbe44a7dbbe00e40fU, 0x3d59b2a83d277452U, 0x3a3c50cabbb95aa6U,
  0x3e191b0dbd4eb2feU, 0xbd7a8ebd3d126c77U, 0x3d536413bd0bda91U, 0xbdfc9dca3cffc702U,
  0x3d4490733e3d1885U, 0x3c361db9be271569U, 0x3d9df0c23daa92bdU, 0x3e6ab90f3e15770aU,
  0x3dbf83dabe135140U, 0x3d10b2c6be212501U, 0xbe89be7bbe005bb4U, 0x3ddb516d3cdfee45U,
  0x3d3df099bb2d548aU, 0x3c1b7debbe580cabU, 0x3c88a838bdd6d94cU, 0x3dfa41c33dfefbfbU,
  0xbe1772903e9233fcU, 0x3cc50bc0bcfeb21fU, 0x3cde3eabbe1df9e1U, 0x3e4a931abdf0c89eU,
  0x3df5a05bbdf5b515U, 0xbc922aa8bd8b0d4aU, 0xbe2e8c02bafbe17cU, 0xbe82fe70bd24f694U,
  0xbda72e1e3d854a5aU, 0xbdbed54b3ccdeadeU, 0xbc3d5bf3be833d01U, 0x3dbcbd2ebb3a0de3U,
  0x3c046d2fbe3c30c2U, 0xbdca347c3d7c0f02U, 0x3c61e028bd8bf74bU, 0xbbaf12c93dc9ced6U,
  0x3d520db6bdfea8fbU, 0xbc97ce74bdc4d56fU, 0x3dce08b4bdeaef13U, 0x3da8afa63e35ee3dU,
  0xbd7a56573d52bea8U, 0xbe15df9b3cc13517U, 0x3cc93f93bccb16dbU, 0xbd58324b3defbecaU,
  0xbd3f88483de66d0fU, 0xbdfe19e43e4718caU, 0x3df446d4bd28b103U, 0xbe5a57a7bda2e885U,
  0x3d9406de3db5969fU, 0xbbe60ef23d0afe3bU, 0x3d72e0b93e2a9d9dU, 0x3d669b663df6c4deU,
  0xbcb1cd0d3d63de54U, 0x3db953b9be107e23U, 0xbd87b8963e93788dU, 0x3d03e3733e06c7eaU,
  0x3e16ead93e57bb23U, 0xbd951fad3de7bd46U, 0xbd87a139bdbf915bU, 0xbd951d87bd61d0caU,
  0xbd7094b53e198b48U, 0xbd84dfbcbe1040b7U, 0xbe168ac93b3ab83cU, 0x3e85587bbe03c83aU,
  0xbe4b094d3e2d0187U, 0xbd041a313dfce966U, 0x3d54feaf3cb6bbd9U, 0x3db7d54dbcee8305U,
  0xbe3eac453e59ce70U, 0xbb2057ac3dbd9deeU, 0xbd6c04e9bc7e711eU, 0xba8f53353d2aa030U,
  0xbd88a16bbe329452U, 0x3c34334c3bb8bfd5U, 0x3c28116abb2cf344U, 0xbdb7f1e5bd5fe55bU,
  0xbdeb54883d776f2dU, 0xbde30ab5bb3f3e5bU, 0xbd3cf7f63e424ff9U, 0x3d1073d93d3f71f7U,
  0xbd28ede8bd8441f0U, 0x3e107595be18d719U, 0x3d7512663d905626U, 0xbd389f743da141b1U,
  0xbdd667a6bd2c21ccU, 0x3c2b7ac33e1a8074U, 0x3dfc36c6bceeaa11U, 0xbd22ac343d811b0cU,
  0x3cc17e6fbc956c4aU, 0x3a146c5abe1bcd3cU, 0xbd7b68d63dc95f64U, 0x3dc5bf7f3dd0c619U,
  0x3d6ee3ba3e75ed7eU, 0xbd2952e53cc1e73dU, 0x3cfdc0383e0225d6U, 0x3dc3af513d9ee219U,
  0x3d1b8bd63e0c8623U, 0xbd5f9212bdffd858U, 0xbc0fd1d03b9be848U, 0xbdb26df13cbbb3e3U,
  0xbe10fddcbdd7c4e6U, 0xbe3fb33ebe005107U, 0xbd857ec3be68ba03U, 0xbb5658f7bda745c4U,
  0x3dd65aa1bdb525edU, 0x3d3e1fa2bda3c165U, 0xbd95983bbddae829U, 0xbdfa287e3dd925c5U,
  0x3bf4d06d3da7f28eU, 0xbd9d68803e0d1a82U, 0xbda2f25bbe12a092U, 0x3d88e8db3e218720U,
  0xbe425a75bcec73e6U, 0x3c110cd23e5456eaU, 0x3e369028bdb75270U, 0x3dbcc69b3e8117e1U,
  0x3dccf4493cd024c2U, 0x3da552923d852e87U, 0xbd668c573cb814d4U, 0xbe44e02f3dd33cd7U,
  0x3e10b4c03d9a5613U, 0xbd8702fd3e500f6eU, 0x3d2e0f0e3d82dcfbU, 0xbda9f6a5bdd70cbdU,
  0x3e3a69283d9fb47dU, 0xbdf37b9abdef36afU, 0xbdb7bc483db106dfU, 0x3d31cdb43b9fe31cU,
  0xbd4929333d2d5db8U, 0x3e21315ebc870981U, 0x3d2ccd97bdd32ff1U, 0xbd53bb8dbd12a1b5U,
  0xbd90cc4a3e1bba15U, 0xbdda4f14be290ec4U, 0x3d991b33bcdbe276U, 0x3de90751bb783c60U,
  0xbd82ee973c6cfcc2U, 0xbd986eaa3d878222U, 0x3d77fa4bbd4b674aU, 0x3de492253e8d6153U,
  0xbdfc6c513c23c396U, 0xbd406cdfba48f60bU, 0x3cc9b047bd196487U, 0x3de0be61bd337c6fU,
  0x3d9791e93d52a71dU, 0xbdbf892dbc8c7b3fU, 0x3e34d7d2bc9f2d59U, 0xbc9a95013debf42fU,
  0xbd8a9a973dff2a72U, 0xbd4b50a3be21ad9fU, 0xbe198f203cce3131U, 0x3e0c83d13ce61182U,
  0x3db13df63d1bb0f1U, 0x3a2f3dbcbdd8446dU, 0xbdb45bf6bd9cdce6U, 0x3cfa1ae1bdb9f0f6U,
  0x3df5ec2dbdb5827eU, 0xbcd8442abe0558dbU, 0x3d43df65bb932a88U, 0x3df8eb5abe466d87U,
  0x3d016cde3e234239U, 0x3e0bdd573d9049c7U, 0xbc9a751ebde67b7aU, 0x3c652784bcaa6840U,
  0xbe6766503e52b6d1U, 0xbdc60f4e3e39dbefU, 0xbdacd1633de2ca81U, 0xbcacf37e3d86aa5dU,
  0x3d6d0248be240147U, 0x3d943e1a3da11ac6U, 0xbde1d5fb3dd51621U, 0xbdcc7d9fbdbf5ee7U,
  0x3dc6b8613db942feU, 0xbe10aff3bbc3782cU, 0x3d196a4e3e2f76f4U, 0x3e2feab73e0235ebU,
  0x3d8858ec3c879479U, 0xbc29ca9f3d10a508U, 0xbdac4480be014eb5U, 0x3c129b1dbc2ca98aU,
  0x3d1992dd3e311f72U, 0x3e317a323d599245U, 0x3e167082bc879860U, 0x3e37ad96bce55385U,
  0xbd20c6df3e310089U, 0x3cde71db3d0632cfU, 0xbd8203153d353668U, 0x3dc84d5abdaf231aU,
  0xbda5da533d7c1ff2U, 0xbe0a642d3cf16391U, 0xbb55fe01be0893cdU, 0xbdd351603d9c9657U,
  0xbd1e6f23bd84b965U, 0xbdd19c0fbb095539U, 0xbd199b813db6798cU, 0xbe2a4170bde188a8U,
  0xbe0b3d113cc5980bU, 0xbcd7302fbe1fa1d0U, 0x3d02efa93e1ea202U, 0x3c7f107fbdc48b30U,
  0xbe045c3f3d91bd8eU, 0x3e3685acbd300a23U, 0x3e1e691ebe3b22c3U, 0xbdb13ff03e2b8f69U,
  0x3c48cb553de549c4U, 0x3e117bdf3c88e0edU, 0x3dc141a7bdac7696U, 0x3e31c5d5bd8997caU,
  0xbe080ea5bdc47df4U, 0xbec603503df6e64fU, 0x3e19efa53d3184a7U, 0xbe027b71be7157f7U,
  0x3e2a16d63df12b38U, 0x3e03dca73e348917U, 0x3ddadc22bc1127b2U, 0xbeab91f9be102fb6U,
  0xbd2d1053bd267707U, 0xbd94d7bdbe1491c3U, 0x3e1d71833df5a679U, 0x3e10f58e3dd60ee3U,
  0xbda4b8443db8a14aU, 0x3e3aad24bd50849dU, 0xbdbb901f3e6840acU, 0xbe874b1abbe71f46U,
  0x3eb4bd603e97c712U, 0x3e0e4d6ebcdb6958U, 0xbd119f07bbe6c2e7U, 0x3e61fd573c9dffb8U,
  0x3e14f886be030db4U, 0xbd7b783bbde61a45U, 0xbe5f3d803cec28cbU, 0xbd71c9fabe4baa14U,
  0xbe2a34713dafbce5U, 0x3e35fe323d039385U, 0x3dd318e6bde208d0U, 0xbd012ecd3d75d4b6U,
  0xbe3f80cb3e21ab8eU, 0x3e10bc363daced67U, 0xbd5f95a0bc15b73cU, 0x3e2ce9b6be24632eU,
  0xbdd3c61abd6ab7acU, 0xbdb96f0cbb9b490eU, 0x3cb0ef45bc937236U, 0x3c05479e3e26505dU,
  0x3d2156413da2084fU, 0x3dc22a793bba9495U, 0x3c4558823e47b182U, 0x3db42395bdc891b0U,
  0xbdbab155bd43f63fU, 0x3c88e7373d898b3eU, 0x3dbae72a3d62b49fU, 0xbd871f083d8694dbU,
  0xbe0a7397bd69da16U, 0xbd5a8e213ce2bb74U, 0x3ca69600be231f32U, 0x3d269896bd5abd8aU,
  0x3caa91ec3a7a9352U, 0xbd8fe6863e02e30bU, 0x3e09272bbe240230U, 0x3dbd55613c80abfaU,
  0xbe5d4faabc201cf7U, 0xbd88d6983e2c53c4U, 0xbc717a7bbd44ed2eU, 0x3c8af7313db6bef9U,
  0x3db48d24bcd0f4d7U, 0x3d3bd0c03e0d01efU, 0xbd8b51d33e20f480U, 0xbde6d168bd733c73U,
  0x3d0b07c53cffe277U, 0xbc808c913c443976U, 0xbcc076493e2a155eU, 0x3e2bbf123db67059U,
  0xbdbcd5423de27dd2U, 0x3d2bde513ce055edU, 0x3d113337bd18f744U, 0xbe1a78b8bd734819U,
  0x3d0d74f53dfe6b9bU, 0x3df08e513d385774U, 0x3d654d4abdea996dU, 0x3dcbe47cbc9a8a7aU,
  0xbdeb95da399aa7f1U, 0xbbf89ed33ca9c1d8U, 0xbd58945a3d40e652U, 0x3debee933e1e507aU,
  0xbe0f4a433e590477U, 0x3d38f8fb3df1c8bdU, 0xbdb2de92bd072d52U, 0x3e00dc70bda40c64U,
  0x3d37ee30be1ac332U, 0xbd0daff6bc73a4f1U, 0x3cbc74263d735988U, 0xbdc4819e3ad4ae8fU,
  0xbe397cfb3d275ec7U, 0xbd065d2fbda07e16U, 0xbd4b5f453dd41e0bU, 0x3dffed663daf7dc1U,
  0x3d19e2a6be089268U, 0xbd8a6cc0bd263b76U, 0xbd4c1c26bcbe4c71U, 0xbd642f7f3cd4d136U,
  0x3d8ee7493df65ddbU, 0x3db9559ebd985ce9U, 0x3d902d23be09e958U, 0x3b33dbc9bd0fef46U,
  0xbd81286e3e1a7e44U, 0xbe2667e63d556734U, 0x3dcdf50cbdc2e269U, 0x3d5629e6bd852e46U,
  0x3dd128773e22f690U, 0xbdf4296d3d616110U, 0xbd29df7e3d7aec41U, 0xbcf63e8a3dfd3d2bU,
  0xbd1e0c45bda9aafbU, 0x3ba48c51bdf949f2U, 0x3dc17ea13e17a52bU, 0x3c4af0df3cef4d11U,
  0xbe192953bd48abe0U, 0x3daf9652be21842eU, 0xbe02b3a33e2834e4U, 0xbdeff438bd148ff2U,
  0x3e2abed1bd39a41eU, 0x3e0a086abd77598cU, 0xbd8879443da1ef2bU, 0xbd3a739a3d39cfd6U,
  0x3e3b09df3e0a82aaU, 0x3e64e261bdc700e5U, 0x3c3d2d1c3d9d2ca2U, 0xbdb699783db90329U,
  0x3cbcdb833d309bc2U, 0x3e58eecdbe16ea66U, 0x3d447e03bdfb4cbcU, 0x3df329ca3e6e3a15U,
  0xbe412b903ea7a659U, 0xbdb9666bbe2c2886U, 0xbe6553223dcf72fcU, 0xbc3eedee3b9e5542U,
  0xbe13c534bda10c94U, 0x3df0b2dfbd09c2f3U, 0xbea7f02c3e1c9f24U, 0xbe7b0c28bda05a7aU,
  0x3db985f33ca99041U, 0xbe4c16a3bd0709f1U, 0x3dc7eb0bbdc63b87U, 0x3eb1465fbdc0598dU,
  0xbd7c735dbe82465cU, 0x3d829ac2be3ee747U, 0xbde21803bd107c2aU, 0xbd975260be42fe49U,
  0xbc045031bdd69bdcU, 0x3daa26f33deea56cU, 0x3e89fc493c17921fU, 0xbe1bae423debd841U,
  0xb9eb76073ce53219U, 0xbc3862c0bda492ecU, 0x3da074f9bdc0bd48U, 0x3e859485be19d64eU,
  0xbdd1e0373eb1f72eU, 0xbd9f7acf3dc23f4aU, 0xbdaab9f43d83a860U, 0x3e567623bd93f192U,
  0x3c48775fba93d307U, 0xbe73cf26bd375c85U, 0xbd400d8a3d3cfb30U, 0xbd55d271bd091519U,
  0xbe21577dbdf5ef16U, 0xbdab5b0c3e08b46fU, 0xbcdc7ed83da0b8a0U, 0xbca0fc2b3d16a32dU,
  0xbe874278bd825110U, 0x3d9281a23d14b771U, 0xbc93610cbc9701fbU, 0xbe37dfad3da5fd41U,
  0x3d8ef6e6bd8cdae6U, 0x3d840d15bde4793fU, 0xbe37cfcdbe271683U, 0x3d3e151f3d5c4847U,
  0xbe11bda93e31b8cbU, 0x3e446780bd2aea74U, 0x3d52da10be0cbf4fU, 0xbdf4e3813e31c02fU,
  0xbe65cb653e491b35U, 0xbcc918e53e1593ffU, 0x3d4bf2f13da68046U, 0x3d9b857cbb99a76aU,
  0x3dfcb044be00cc53U, 0x3d597293bd72ebfdU, 0xbd836201bd8980b2U, 0xbe551846bdac3013U,
  0xbdd4bf413e3493c8U, 0x3d6c2707be1c9ab6U, 0x3b54790c3e3970adU, 0x3e0cf8413d5b86a2U,
  0xbe0cac07bda8c722U, 0xbd38806f3aeb0a33U, 0xbd79f8493c86ac13U, 0xbd37308bbc0edac9U,
  0x3c92b6473cf4079cU, 0x3e3b441d3d09e437U, 0x3de5eeb4bdb3b291U, 0x3dfae4f2bc0573b6U,
  0xbd0e90f6bb66fcd4U, 0xbe20e206bbe52733U, 0x3d693dbc3e156b7fU, 0x3db547013cda282eU,
  0x3e12ceef3e204adaU, 0xbdb6d938bc9235c1U, 0x3e207a293e13c85eU, 0xbdaf7f053db4a8c3U,
  0xbe0cb1fc3d0de23fU, 0x3cfb16c7be35ff41U, 0x3d6d9944bdf7dd16U, 0x3d92eb543dc40c10U,
  0xbe67a9353bacd4d5U, 0x3b4b1f37bc7df651U, 0x3d4c79cfbe16adc5U, 0xbd62d6e63d7438d2U,
  0x3e259461bb67e02dU, 0xbdd0b2fe3dbbf3b1U, 0x3e011d9c3cec5605U, 0xbde60e983da55f55U,
  0x3ddf6fd33ddef445U, 0xbe4a9be93e014f8fU, 0xbe3652bbbe0dd3f6U, 0xbdf2d077bcfdfa68U,
  0x3d5c20d43e137d99U, 0x3d8d28bfbcf6019aU, 0x3da5aa733d024332U, 0xbcaaa1323d75934bU,
  0xbe15aa6c3d727cbeU, 0x3c84c4f33b0a3b7aU, 0xbd9512563dc3fb80U, 0x3daf4d7abd3f2a07U,
  0xbd64f32fbe2dc449U, 0xbced90803dced0f7U, 0xbe1e2cdf3d7ec7f7U, 0xbce8aff13bf15ab6U,
  0xbdefa2fcbdb9b4e6U, 0xbe2b8ffd3b1aa922U, 0x3d7a5ed23d5cf93eU, 0x3d917e803d987112U,
  0xbdd9a57fbe39c3daU, 0x3d8bc1d2bd078d46U, 0x3e3978bfbd986635U, 0xbd827e81bd172c9cU,
  0xbc84e34cbce2776eU, 0xbdb444ad3b74d954U, 0xbdc9b953bc61eebaU, 0x3e39ad923dc65e22U,
  0xbe0b7461bdaf74a6U, 0x3e096304bdfb45f0U, 0xbe104054bddca258U, 0x3d8817863e101367U,
  0xbd5a3e103e01f5c2U, 0xbd7d1a46bbe73cfcU, 0xbe011e40be07b4dcU, 0x3e8477dc3d47fca7U,
  0x3d853577bd9f58adU, 0x3c4f59743db9c2deU, 0xbdcb9e933de950a2U, 0xbccbfc70bde37dceU,
  0xbab0ac283e031471U, 0xbe37633dbdffb689U, 0xbc90b6233cbbbb92U, 0x3e84e2ff3d3f36d2U,
  0xbdacc9c1be53e951U, 0x3d19534d3d9cd726U, 0x3e2273c3be22cb0aU, 0xbca303243da386a7U,
  0xbe26f72ebd3f00b7U, 0x3d5976a33e2ed0abU, 0x3d3187613c9472fdU, 0xbc5b95283d4d41b2U,
  0xbdbe14e3bd6580d0U, 0xbe828f483e6c7a71U, 0x3dfe1f25be22e837U, 0xbdee5d73be7b957bU,
  0x3dbb1ed83e1e11e3U, 0x3cd638823e8acc97U, 0xbc8e39ce3d21629fU, 0xbe9dafcf3e0104bdU,
  0x3d773af63e1f17e2U, 0xbe0e481bbd2d4f26U, 0x3e38abde3d02c515U, 0x3d81d4c83d891b51U,
  0x3e831650bd774816U, 0x3e595c443e12e73cU, 0x3bf080ff3e59b22eU, 0xbe5238bb3db77fc6U,
  0x3da1685d3f0496f1U, 0xbda429c1bd414178U, 0x3d7948e1bdb26a2dU, 0x3e3575193c0d5c84U,
  0x3dccdef1be14055dU, 0xbe1643afbe8d1927U, 0xbeafd7be3e1fc966U, 0x3d3dee81be9eeaadU,
  0x3d73ec6ebb6eee6cU, 0x3d5e80a9be47e095U, 0xbbc1fbdf3d1f18c1U, 0x3da44ae13e8e1b0fU,
  0xbd4277593e7b1a0eU, 0xbde2fa97be3dba62U, 0xbdcb5a79bd9b40a4U, 0x3de2ee3abca7089dU,
  0xbe3f0ef8be0f2dc9U, 0xbdbc706e3e02659fU, 0x3d5d736b3e2f228dU, 0xbe6e6fc2bd296fb9U,
  0x3d88b6c53e143935U, 0xbe4650b5be085973U, 0x3adf0c81be1c3903U, 0x3d1385eabd16b85bU,
  0xbd9c30a5be7d90b9U, 0xbcca2bdf3d38c9f1U, 0xbe42ca763d28aacfU, 0xbe260a4bbd3ddfc2U,
  0x3e007a023cfc5dc3U, 0xbdadee9f3e5784fcU, 0xbc6fd900bd482bb5U, 0xbe09eb593d2776e9U,
  0xbcf9e5d8bd51de81U, 0xbd669ac4bdc62ab5U, 0xbdbd38d9bdd57090U, 0x3d01e21a3c9483d8U,
  0xbe4c12393d8f833aU, 0xbd9fc8d73dbf5f5aU, 0x3b8872b2bd5063c7U, 0x3e57419b3da2a5e5U,
  0x3dd7361fbe06f92eU, 0xbd9a87c63c59d520U, 0xbd62d8003dbbe844U, 0x3da15ac6bd798f12U,
  0x3d9c17673cbbd663U, 0xbddbb7f2be56452bU, 0xbca244a33cc54fbbU, 0x3e53ca0d3e0ed9eaU,
  0x3ca16d38bdc194f3U, 0x3d12ac0fbd3370b6U, 0x3d78c103be080afeU, 0xbb782a793cd3cef6U,
  0xbe41305d3df47d7dU, 0x3d7415dd3dc8a58aU, 0x3e550d2bbc8f3720U, 0x3e080d66bd513f9dU,
  0x3976d14d3e52b7d7U, 0x3c3c4f063b9f6266U, 0xbdde057f3d47844aU, 0xbd3cf2ed3e802691U,
  0xbe3a6b413eb48078U, 0xbdfcb24fbd1d88bfU, 0xbd9cd31e3dd6c336U, 0x3e14d31e3dd5805bU,
  0xbdc793063cdb716aU, 0x3c0267d63d9a0015U, 0xbdee75463da8e899U, 0xbe6b479bbdbdb324U,
  0xbe2e2c303d15ef7eU, 0xbcb415b6bdc6eed9U, 0x3d2f448fbe590591U, 0xbd22224e3e13d870U,
  0xbe3ff6cabe821a86U, 0xbd888d34be140375U, 0x3c5f6c2abe42eb11U, 0xbdf550a23c82e6cdU,
  0x3d0a60fe3bdb2ccaU, 0xbda9eafc3d35c0fbU, 0x3d791754bccd023dU, 0x3d1c77133e290771U,
  0x3e14d08e3dcad6a0U, 0x3e8681c5bea0ed4dU, 0x3e0e28313d23e060U, 0x3e821c7a3e866c37U,
  0xbe2fd6633e76219eU, 0xbd94a9f7be5741edU, 0x3ceb3a1e3e01f3cbU, 0x3e9db5c43e128d57U,
  0x3ce175443bfbd336U, 0xbd45879d3da34417U, 0xbdece16239d5cc44U, 0xbddec8b5bcc1c66bU,
  0xbe2051d5bdce82ebU, 0xbd6d266ebdf84348U, 0x3c5ecd44bdfb60faU, 0x3e04b5d93de42905U,
  0xbe4885b3bebfce17U, 0xbdaabd52bdf450cdU, 0xbdfa903d3cd93a2bU, 0xbd8cf782be892898U,
  0xbd6ae5a0be323169U, 0x3cfa1a5abe0cbc86U, 0x3e8d507d3d8521dcU, 0xbca241b93e8657b0U,
  0xbc8a80d33dd9630dU, 0x3c965cd13db00565U, 0x3e17378bbe0a3200U, 0xbd30a7ac3d7a1a8fU,
  0x3cb8eb0c3eacda89U, 0x3c0761563d8d162aU, 0x3e066bf03d4b1238U, 0x3dd476973d3e031dU,
  0xbe8ed2dfbc9dd1a2U, 0xbd83c0d03da4e0ddU, 0xbe4edef93df5bcb4U, 0xbe80d2e7be69213aU,
  0x3d971086bd6f4e39U, 0xbd9ff223bd552ab8U, 0xbe905a163ef2a86cU, 0x3df1d86fbd25870eU,
  0xbe47c0fb3dffdb96U, 0xbd74baca3d043e5fU, 0xbe1d8f10bd6e8170U, 0xbdeaf14fbc4fc87aU,
  0xbae31e5cbda587ffU, 0x3e4fef3c3e8ec5a0U, 0xbd85e412bd92c72fU, 0xbd4ffb69bd14db53U,
  0x3d55a2bebb48963cU, 0x3c650c8bbb96259aU, 0xbc89a9633e10aaf5U, 0x3e57ba243c4ac8bdU,
  0xbddefd593d9e7392U, 0xbc1b62b1bd37e063U, 0xbd585279bd8ebe6eU, 0x3d5bb2863da8a3d5U,
  0x3d3322993d33fce5U, 0xbe19344dbdac68c7U, 0x3c3b6d893db6bc37U, 0xbe224111bde6bcd0U,
  0xbd9a7c1abe005803U, 0xbe21c938be093498U, 0x3d2fb024bda965e3U, 0xbe03c3a4be29e1d2U,
  0x3d975ecf3bf54005U, 0xbe075867bc31c05fU, 0xbd8f5ed0bd66a2b6U, 0xbdaba77d3de5756bU,
  0x3c03b5f93d447cbfU, 0xbc318d8abd589df2U, 0xbdc375723ce2a6b6U, 0xbc71a21f3e0b113cU,
  0xbd575dd0bd8031c8U, 0xbcda17663dc8f450U, 0x3dae8cf43df9b501U, 0x3e4c433c3d1c72d4U,
  0x3cf048103e8d8992U, 0xbd462f153cb735d5U, 0x3bcd5db33dc3ee99U, 0xbd82b59b3e0dbbe6U,
  0x3dc94d883e35c821U, 0x3bd03b9abdedd20fU, 0xbde1d2ea3eb8e552U, 0xbe7bc8ca3df8e834U,
  0xbd25c2de3ceb1297U, 0xbdaf0d633d395d89U, 0xbded29fe3e8b5e12U, 0xbe3e278bbe181886U,
  0x3c968871be4d2080U, 0xbb00d9b33dcdddccU, 0xbe6139b9bcbf74a8U, 0xbd89df07be118bf8U,
  0x3e58fd803e0b7da8U, 0x3e20ae06be63fd83U, 0xbc09ae62bde189a6U, 0xbde8f1263e006608U,
  0xbe0cb009bd862d0aU, 0x3dc151eebe69a016U, 0x3cdd2ad93c42888bU, 0x3dec235f3dd30356U,
  0xbe07c4d33de174b7U, 0xbe296d9cbdfee0f4U, 0xbd5abaab3cbc59c4U, 0x3e40b3603e6524b3U,
  0xbd87a6653c6fd2ccU, 0xbc29b837bd796d4cU, 0xbe3858d23c33e940U, 0xbe9368afbe62d391U,
  0xbe1c828cbd7fa4d5U, 0xbe8d1803bdd7fe57U, 0x3dd5b23bbd8da8ebU, 0x3d071ce63da06798U,
  0xbde1c525be15ee94U, 0x3e350485bd726c2bU, 0x3dbc0180bddb0f6bU, 0x3b48b2da3d18e342U,
  0x3dfe74233cad85c1U, 0x3e3bb54e3b2986f5U, 0xbc4c7afa3caab9adU, 0xbd09fb393d3406c1U,
  0xbd147137bd74523aU, 0xbd72430f3d08878aU, 0x3d8f9495be332d1aU, 0xbc7dfe673d5af052U,
  0x3d8f845dbda89437U, 0xbdfe6e103dcdeca8U, 0x3dac0631bd10d396U, 0xbe32f76cbe1367c2U,
  0xbd862749be3f8d9aU, 0xbe00009c3de1ad5bU, 0x3d9746753e0c4c02U, 0xbdcee20bbd9a93b2U,
  0xbd1a79933e187787U, 0x3cf262513d08f37fU, 0xbe6c7eb73e9e663cU, 0x3c8427a03dcd16daU,
  0x3d8a98853e2b20c5U, 0x3e2352bcbe0966e4U, 0x3ddda1e33dc0214fU, 0xbe050a993cef2ab7U,
  0x3bad49fc3e151a90U, 0x3c91b434be1eaf8cU, 0xbdbef6363d04b419U, 0x3ddfd20bbb04c5b1U,
  0xbdc4a6d93db443f8U, 0x3cb2d5c8bd1b2964U, 0xbdcff9eabd592a4aU, 0xbe20c1cc3dc88f96U,
  0xbd4a429d3e64fee1U, 0x3c4503ffbda1d60eU, 0x3ceb98edbce2fdf3U, 0xbe047d743d4ec9efU,
  0x3cde308bbe1eb949U, 0xbe5b0093bdba3ad9U, 0xbc5a4d613c668d1fU, 0x3bbb47ee3cdf69e4U,
  0xbd9703eb3e0cc563U, 0xbd3c6d9bbe38023eU, 0xbd7c8c813da854e2U, 0xbc34c4093dcda607U,
  0xbd421ae6bddad05fU, 0x3de5cb5fbd33f324U, 0x3d3b878dbe1527f1U, 0x3c8ef1753cc068b4U,
  0xbe1bb20b3e0b363aU, 0x3dd9a873be7c19e7U, 0xbe10ea853c3bee4aU, 0x3d375ec9be6bd579U,
  0x3d9ee895bc37e6f9U, 0x3db8882ebe326924U, 0x3e8b399fbe74a4ecU, 0x3e4b70ac3f203876U,
  0xbe837fc23ebd0a02U, 0xbe8a247fbc6810e6U, 0x3d57984b3d86a4b0U, 0x3e05a5a83d7abea0U,
  0x3e2bf705bbe6614eU, 0xbe08e8983eb4d273U, 0xbc8f1fdc3e1b47f1U, 0xbe232945be8022c2U,
  0xbd15fbb63d67cb18U, 0xbe2d5bffbe99a63aU, 0x3dc17311be153ce6U, 0x3e062e8e3e372011U,
  0xbe8db5d4be071a79U, 0x3dfe40d9bde339feU, 0xbcff197abde803ecU, 0xbd92ae4fbe5bb061U,
  0x3e3ca02c3da6fdfeU, 0x3d490b18bec7aa40U, 0x3e341d33bdfd4f0cU, 0x3d2c492f3d078391U,
  0xbd3a631e3e60e7bbU, 0x3db22df3be57f39dU, 0xbc1f2258be5cfd53U, 0xbc12c35f3eb08c4fU,
  0xbe88b4743e666f2aU, 0xbd9265e1bdac2fb8U, 0x3c2342ce3d350031U, 0x3e5c20453c8c4325U,
  0x3bfd9e2bbddfebdbU, 0xbe16c1403c4017a8U, 0x3d74337f3dbe1ed7U, 0x3cfce1fabb5bc058U,
  0xbd54143dbd3683f2U, 0x3d38a7b23cc30359U, 0x3e01fc083b56e51cU, 0x3e02e6d3bc90a1dcU,
  0xbdf89a6339bca2dcU, 0xbde8779c3cc9b505U, 0x3d888ea9bdd1d73bU, 0xbe1704e33d834e08U,
  0xbc29e8a13e1ca21aU, 0xbe26c973be7f79a6U, 0xbda2082bbd9bf6c8U, 0x3c7c9badbd627ad9U,
  0x3c8f3b083ddffd59U, 0x3dc9d482be2da143U, 0xbe1d062ebe0dda2eU, 0xbe239f5b3dd5eb6fU,
  0xbd5f7d1d3db5c42aU, 0x3de615a63e3049afU, 0xbdb32c6abe28727aU, 0x3d5e89f8be387337U,
  0x3db7402cbe397918U, 0xbd48dbb13df91a3bU, 0xbdc47c303c20cc8bU, 0x3cfcbcf1bd1a6b1aU,
  0xbe1373383d0793fbU, 0xbd1a2023bd93459bU, 0x3dfe6f8f3e73b8bcU, 0x3df7d5a03d46ce79U,
  0xbe8a93d3bdd0faf4U, 0xbd5d0a703dd9da2cU, 0x3dde90c0be271b55U, 0xbe16bd5b3e220b5bU,
  0xbdc407fa3d69a59eU, 0xbcedc9823d6d400fU, 0x3c84dcb2bc272571U, 0xbc9001c3be0e8215U,
  0x3d428244bd82ac80U, 0x3e2d11a0be310133U, 0x3daafc0dbd7c13fbU, 0xbd61c9673da02ee7U,
  0xbe7167ac3ea15ae1U, 0x3dce57ec3e0a8c10U, 0x3dcd7550bdba2e89U, 0x3e8bca3e3cfaa945U,
  0x3da673fdbe087237U, 0xbd606cbc3dc7c54eU, 0xbe008dad3bafc279U, 0xbd490754bbe08a63U,
  0xbd6c8969bd9e4156U, 0xbdc682013cd82f4cU, 0xbd5142eabcc2c92eU, 0x3c59656e3dec9b36U,
  0xbd80da3abd144e9aU, 0xbdab6805bd21432bU, 0x3d9a3a53be3439dbU, 0xbdc09d843dee9353U,
  0xbd3fd4d33e27f6fdU, 0x3da2c1903d25b405U, 0x3e2aada13d4c1079U, 0x3d58c1073e0986e0U,
  0xbe3729fd3de3159bU, 0x3d9a845ebd46c6ccU, 0x3b19a00fbe48313dU, 0xbdfee76f3d66cd3cU,
  0xbe35a3783d9c9c87U, 0x3dac43a33daa84a2U, 0xbd4d93fcbdc799e8U, 0x3e6e3605bd5261b7U,
  0xbc82a238be2b64aaU, 0x3d133a093dfd74b4U, 0xbe0322dfbc8afe87U, 0xbdf0ab73be50a7abU,
  0xbe154504bd9983a1U, 0xbdb1c503be461119U, 0x3e44e66a3e124abeU, 0x3dd556f43dfae465U,
  0xbe0d1cbebe21b59eU, 0x3e12cce6bbf8f850U, 0x3d35f19abca1c979U, 0xbda43c833cc0d9adU,
  0xbdb988223e05acc0U, 0x3db22dc2bc3b2ea8U, 0x3de09a053c42aa11U, 0xbd3e62b73d49d600U,
  0xbe8028c9be407944U, 0xbecf88363df7876bU, 0x3d81bbb53e09e0a1U, 0xbe15f025bf06d633U,
  0x3eb0eb6cbe2e85dcU, 0x3da93e99bc0813f7U, 0xbe12b8dc3da73b5fU, 0xbeb640c53c97d9b6U,
  0x3da56132bdfde66dU, 0xbdb40eb4be45bbd8U, 0x3e854a683e0c3439U, 0x3e67dea23e9b234cU,
  0x3d97eaecbdb72946U, 0x3e4b0a2bbd6e4c44U, 0xbd4f87753de7b26fU, 0xbe00c650ba340306U,
  0x3eba16463eeb491bU, 0xbc028052bc9817d7U, 0x3d63a640bc0a1489U, 0x3e4067333d34f654U,
  0x3e1f1ddebdb052c7U, 0x3a94e13ebdbc462cU, 0xbe8efab23e035255U, 0xbd6f0cc2be21ae4fU,
  0x3d2e8d3d3e24c553U, 0x3e3286eebdf757d8U, 0xbdcbb3fabe138a93U, 0xbd52168bbd82c46fU,
  0xbe0369123e5d05f0U, 0xbe0327c73d52dccbU, 0x3e216ec6bdde2b13U, 0x3e2ce148be56fbb2U,
  0x3d9ee98d3dcc1a50U, 0xbae555cd3b8bf523U, 0x3e12f1253d9e1ef5U, 0xbcf8fc4abdba3185U,
  0xbe1255a7bc30c54cU, 0xbdef05afbd10081cU, 0x3e18ff843da5b396U, 0x3d7ec91f3c8a4eccU,
  0xbda9c436bc2ec368U, 0x3d86e635be0dd645U, 0x3d3657c7bda1da17U, 0xbdd4bf6e3d96eed8U,
  0x3c79afd9bd9d5b56U, 0x3d8508263e40e14fU, 0x3dbd566abce1e888U, 0xbcbdb60ebe0e73e8U,
  0xbe2ca6a4bdcc6e48U, 0x3ce155ecbdb8ec9eU, 0x3e70a010bd91feedU, 0x3e90a06d3e559832U,
  0xbe6a54a03ed53bdcU, 0xbe7236fabe413857U, 0xbde3d90bbdeb2449U, 0x3d1ce4fbbc4fffb7U,
  0xbd35475d3e6089edU, 0xbdd123d83e91fe99U, 0xbe5063573e22fc8eU, 0xbe029d263c07f7e2U,
  0x3e31238f3d06d60fU, 0xbc9ae6b83d121104U, 0xbd023290bede8795U, 0xbda479bd3db3826eU,
  0xbe1a80043e75050dU, 0xbe16d8eabe4b56e3U, 0xbca061e0bda2b0d7U, 0xbe24c0ca3e3a8b1fU,
  0x3e2878acbeafcfbaU, 0x3dac8e20bd984548U, 0x3df1c4703db455adU, 0xbdec91b23e208b63U,
  0xbcfb5e83bd42187cU, 0xbe03a7393de37b6cU, 0xbde067753e036164U, 0x3d43cb703d90c572U,
  0xbd886e5b3e300d9eU, 0x3dc8b4eebd7ded48U, 0x3d8c6406be0b2bf9U, 0x3e4327af3c6b38fbU,
  0xbe52254b3dfbc18aU, 0xbdb931833b311a59U, 0xbdadfc573e3c06c9U, 0xbe24892a3e485d30U,
  0xbd8ae53ebdf8ab5cU, 0x3cffd229bd340c60U, 0x3d00b3cdb9e0403dU, 0xbe4b35923d896400U,
  0x3d4271c5be31f5feU, 0xbe8a87663d5593a4U, 0x3cfa29dcbd766012U, 0xbdadf911bda64faaU,
  0x3d659dbc3d6a8353U, 0xbd283f1bbe363ff6U, 0xbd33952e3d971a55U, 0x3dee3b063e4545ccU,
  0xbcf6494cbdaa13ebU, 0x3d21f4983c409c18U, 0x3d96791cbcb24af9U, 0xbdbe1975bd91cc0fU,
  0xbde469413e604f4eU, 0xbe1f78993d289138U, 0x3d84b2b5be27b4f0U, 0x3de0aa29bd88e460U,
  0xbd10bf023b5d1857U, 0xbe36371cbcc4bd74U, 0xbe1f77e83d9df824U, 0x3c0035763ceadc9aU,
  0x3a9f8f02bc6e8bedU, 0xbcb28774bda80f56U, 0xbcc633e53e1822e9U, 0x3dd645e3be0a65f2U,
  0xbd881ed13c8b89aeU, 0x3d93f393be13c9c6U, 0x3e4235a8be3e7597U, 0xbd9231223e2bc548U,
  0x3d1f594e3e18e0acU, 0x3e36fefc3e252962U, 0x3cf7e3023cbdc5d6U, 0x3dcbb38abdd2d70bU,
  0xbc7f04b53e0386c0U, 0x3d1726d33df51078U, 0x3c1cd0dfbc89ceb9U, 0xbe20181d3e094ee1U,
  0xbd07c8743e468e46U, 0xbd3322b93baa102cU, 0x3dca1f26be3db38eU, 0xbe045296bda36d49U,
  0xba43005dbdf1f9ceU, 0xbd975179be21860aU, 0x3e3670ad3b370a15U, 0xbd5095d23e1b29ccU,
  0xbd6fdd4dbc8582ddU, 0x3d55f51fbe160061U, 0xbd9f4e8dbd88ea68U, 0xbe461a86bc3f48c3U,
  0x3dd862963d9c5875U, 0x3dbfc76dbd66978bU, 0x3e1a226a3d9bf7d4U, 0x3b7a0c77bc9a4693U,
  0xbbe09b003d5b779fU, 0xbe19fc4abd2800b3U, 0xbe37a2083d48c2f5U, 0x3de1da01bda96726U,
  0x3df8e03bbe241882U, 0xbd6f0e23bdb4c626U, 0x3b5aef1dbbf6ffd2U, 0xbd9c438c3d267c35U,
  0x3e4c7d2bbd55b3baU, 0x3da15d463d17461bU, 0x3afb82dcbcd4ee97U, 0xbc7964b93d7a39f7U,
  0x3e48da463d970393U, 0x3c90d4e4bc28ce7dU, 0x3d8f7444bd2d9e1dU, 0x3cb10198bbe4bfe6U,
  0x3e2508f33d46e6d7U, 0x3b02deeabdfab642U, 0xbd42997e3e11b4a1U, 0xbbe483febe102eefU,
  0x3d30e7b23ce5c254U, 0x3d263a63bda19c3eU, 0xbd4a07f5bd2f4b6dU, 0xbce65113bd9e9c12U,
  0x3e35f2b83de7d0e4U, 0x3e0424f4bc0ad63dU, 0x3bab9ba8be13e8f9U, 0xbcb7092c3d92e299U,
  0xbeccd5733aa7646bU, 0x3d40fb26bdd849efU, 0x3da1f7713f18aeadU, 0x3eda07eebf0ddbc7U,
  0x3e997e9f3f17a1eeU, 0xbeed78e43d4d6f35U, 0x3e9dd2ea3eb337cfU, 0x3d9b50e9be000d88U,
  0x3ea31e4dbe44f846U, 0xbe5170123def3c19U, 0xbe914a973e1676ebU, 0xbe1a3abdbd2f0fa6U,
  0xbf4d04c1be1ca828U, 0x3d904642bec33696U, 0xbcd41c7cbed53d42U, 0x3e54eeb2bcacd206U,
  0xbe6097a5be96338fU, 0xbed3baa1be8650afU, 0x3e304f01bdc12d89U, 0xbd641f383e8ebca7U,
  0xbe0b31733e2116afU, 0x3e3942a33e6ffcecU, 0xbf6f8313be8232b3U, 0xbf8653103de2c46cU,
  0xbc42c408beb1ab24U, 0x3dd100243e8b79a7U, 0xbdfa1a69beb51701U, 0xbda4dd81bd255ab4U,
  0x3e309be53e1237daU, 0x3d766252be5cc3d5U, 0x3eda7db73e786160U, 0xbe5ed3613dd83eceU,
  0x3d2167303e5b56ecU, 0xbc890954bdfce9a3U, 0x3df47dc5be97bde1U, 0x3e56ba1a3ed6a778U,
  0xbeb56358be8b090cU, 0x3eb1c201bef11116U, 0x3e1ae129be919dd6U, 0xbde96af3bb4e44deU,
  0xbda9c3983eab11ecU, 0xbe9d5cc8bdd999a9U, 0xbea0dea63d12d876U, 0xbdb8f8d3be51a99fU,
  0x3e86d036beb0e676U, 0xbf0d414fbdc786d3U, 0x3e2bd6dcbe2e2017U, 0x3dbe39d13ef86166U,
  0xbe77e26bbed56a33U, 0x3ea0ff943ea91ecfU, 0x3e749f13bdabda54U, 0xbe83c69f3e9f1d85U,
  0xbd8510eb3e3798a2U, 0x3d9e880c3eeb1570U, 0xbdc4ad443e054e10U, 0x3de24c1cbc08a542U,
  0xbd922ff0be91de3eU, 0x3e5ac64f3e806e97U, 0xbe3b41a23e261c44U, 0x3e04f800be81a86aU,
  0xbe8d0528bead16b9U, 0x3db922ff3f197242U, 0x3d09e7d7bec1adf5U, 0xbebbe5463e303feaU,
  0xbd1b183abed0a674U, 0x3e8b4dcabdf7d9a6U, 0x3e17a9d0bce0beb1U, 0x3e6296cc3e9bb278U,
  0x3e1c6ab63e113672U, 0xbd63fc49bdd28424U, 0x3e1da5b73ea80ef4U, 0xbc8c16023e398fe5U,
  0x3eb22786bf0bbf0dU, 0x3e7ca4a3bd9c22f7U, 0xbe0be62b3ea9af3dU, 0x3eb1d81c3e0e2599U,
  0x3d98d87e3df2c44aU, 0x3b9e4b6d3eace00bU, 0x3d7be42dbe368c43U, 0x3e57f5973e7ff080U,
  0xbd89b55e3d071e64U, 0xbd3f0f023e8ed893U, 0x3e38b8f53eab95d3U, 0x3dc25a02becc17c9U,
  0x3e8f6a413eb2d7bbU, 0xbe9164213ed4fb37U, 0xbe5bc724bdb9b48fU, 0xbe88e71e3ef97e03U,
  0x3e1879453e5ee123U, 0x3dc2d18dbd9ce12aU, 0xbe75d5cd3e76a5daU, 0x3e8a0ee7bdd7a15fU,
  0xbdd7957dbed82916U, 0x3cf388683e8ea134U, 0x3e986e27be59b8d0U, 0xbd5633cf3d83f5a6U,
  0x3eac1616be54089aU, 0xbed6b0c1be47c20eU, 0xbe0dc2a8bea3b8e1U, 0xbd050fc0be746bcfU,
  0xbecafeaabf2b51b5U, 0xbeff9e02be265722U, 0xbf30d29cbd555f63U, 0xbe764989bd895b72U,
  0xbe86c3efbf34fcd6U, 0xbf1264e63e77353eU, 0x3d1249a93ec2c834U, 0xbebe3a53bdd4c754U,
  0xbf0608393f11006eU, 0xbe0b75753e72b7a5U, 0x3dd3c5873ee5db77U, 0xbe155b24be9a7877U,
  0x3e2037d8bcf10942U, 0x3c7af5eb3f34d569U, 0x3ebacefbbe542ed4U, 0xbe1d73c73d8fc00eU,
  0xbdde488ebdeea2b5U, 0x3d64a5c83e4fab7cU, 0xbd8fbde43ea91192U, 0xbdee429abe4cd1a1U,
  0x3eaa9c923ebb3a3cU, 0x3e923c0a3d91409aU, 0xbe7a6aa83e3ed882U, 0xbe96fc183db390bdU,
  0xbea233103da2294dU, 0xbeab9b753e8acdf8U, 0x3e8881adbebd1dd0U, 0x3ea30e98beabe33aU,
  0x3c4c8768be527b92U, 0xbe356f6fbe7f6c66U, 0xbeb97dd9be8a7ed1U, 0xbed02767be91528aU,
  0x3d2c680d3e8db1b9U, 0x3e80a2143bf5125fU, 0x3ea01037be2105afU, 0xbee2fda73eff7555U,
  0xbe631b923c7e8951U, 0x3d2f389e3e30475dU, 0x3de83669be927d0fU, 0x3e5dcf4ebe4c7aa4U,
  0xbf01c72bbccf820bU, 0x3e8080cfbe3ccbfbU, 0xbd29b5d63e11e3cfU, 0xbe2e28cc3ef109deU,
  0xbe44663c3d27a1a3U, 0x3e4737b4bc2dd6bdU, 0xbeb2fd6c3eb7dfd6U, 0x3e94bd1d3dbe6400U,
  0xbe7cd9c4be5a45d4U, 0xbbc5681d3eb0aba5U, 0x3e933e86be9f36c9U, 0xbcf024803c021e8eU,
  0xbddef4de3ecbafd3U, 0x3e183d4b3e962aa8U, 0xbde6617abea85644U, 0xbe0fb9b6be28a8e7U,
  0xbf15af49bceb0567U, 0xbe098cbdbed8237aU, 0x3e717abbbe83586dU, 0x3e48ffff3e84e282U,
  0x3e31b2fb3eccdaf7U, 0xbe87e080bd07e442U, 0x3dffa5493dfd14e2U, 0xbec5bc603e504120U,
  0xbddc782dbe992771U, 0xbf048183be19d417U, 0xbe12e2c7be8869d2U, 0x3ecb1c5dbeb96aa2U,
  0x3ea622223f3446f3U, 0xbeb6838bbe61b23aU, 0xbe9e68e43eb10edfU, 0xbdfffa8a3cb8409aU,
  0xbe9181283e79ddf6U, 0x3d7b80653ed249a7U, 0xbd0b37183e84337bU, 0x3cd6a65d3e41b620U,
  0x3e8c3c853db52755U, 0xbe1af44e3eefd277U, 0xbe15b5163e413977U, 0x3d044faebe862368U,
  0x3ebf5b073d4c7349U, 0xbcc7ae5bbe6c9575U, 0x3c80f4bb3e0ab511U, 0x3ec037d2beae4379U,
  0x3d3d9ce63e9560feU, 0xbef11d5e3e13d468U, 0xbedf982abe7a8bd3U, 0x3d8658e4bf4a03beU,
  0x3ec34f643c26a295U, 0xbeda501dbd476953U, 0x3ccef00cbe45f490U, 0x3e04525c3c7a99b7U,
  0xbdf4e3da3e861f00U, 0x3e93cf793ed7dc24U, 0x3e81a8653d0cf789U, 0xbe72fa22be760edaU,
  0x3d362d24bea50ad4U, 0x3e420c2cbe2d17feU, 0x3ee820183ed480b1U, 0x3dc9e758be0b8d36U,
  0xbee05fd03d8ce8ceU, 0xbed57722be856865U, 0xbd362a5cbe945115U, 0x3e0f06703e4d0f9bU,
  0x3ea2204f3e43c13fU, 0x3eaf2fa4bcf77e8eU, 0x3c49c8b4be04589dU, 0xbd9539253e4bd8afU,
  0x3dd6630dbd8dd3abU, 0x3d74637cbe8c39daU, 0xbf39cd54be94b540U, 0xbf57f0f0bd146977U,
  0xbcdae0f53ef0d328U, 0x3e25446cbe3f0bd8U, 0xbf28a0e1be7ce19fU, 0x3df881503ed33278U,
  0x3c9149673f136a59U, 0x3d2acb85be117c66U, 0xbd08116b3d87b7e4U, 0xbdcff6b13db66e84U,
  0xbf03792bbeedb10eU, 0x3e4355b93f115a08U, 0x3ec8e67dbdc9bc54U, 0x3d8132e83e996c37U,
  0x3e86ca92bde19dceU, 0xbe70b007bd061290U, 0x3ede9f503ea4b4b2U, 0x3e83641bbd9dc109U,
  0x3e69e01f3e4e1bb7U, 0x3df0dda8be62c787U, 0xbd896bd53e11f2c7U, 0xbe9e71423f0838aaU,
  0xbd97ef1cbdaf5091U, 0x3d8f45ea3e9e1577U, 0x3e79c204be31edc9U, 0xbeb84c3b3ebe61aeU,
  0xbd12fffd3e5b4865U, 0x3f022370bddb22fcU, 0x3f112e02bea376adU, 0x3d498879bdc1b7a3U,
  0x3e51d0ffbe816e02U, 0x3da76b773e68c227U, 0xbe563e2ebd4a8006U, 0xbe27c9183d9b4560U,
  0xbd7a745b3e2c89c2U, 0x3c41b7053e827999U, 0xbe1ee3903e564f7bU, 0xbd803b57bca93761U,
  0x3d988129be1c9770U, 0xbdbe08513c35ce0eU, 0xbdd6ec6ebda3b448U, 0x3e48eb6ebe105d00U,
  0x3d236cdbbd44dbc0U, 0xbd4e64a3be2d9539U, 0x3e22637b3e3e21faU, 0xbe7a7d503deb5bd4U,
  0x3e4ab51f3d929873U, 0x3d89ea77be456935U, 0x3da80b57be3bf9f3U, 0x3e1074583d80b4beU,
  0xbe84c9113bb2be86U, 0xbe71d0d03ec7088bU, 0xbdfa974a3db5b966U, 0xbe6c76843aaaa15bU,
  0x3f8000003f000000U, 0x3f0000003fb504f3U, 0x3fb504f33f800000U, 0x3f8000003f000000U,
  0x3d2f24c53fb504f3U, 0x3d5a6c843e6e55d9U, 0x3e5a395cbd9d94d4U, 0xbde0aefcbdecb16bU,
  0xbd3d82b93d8bada1U, 0xbdb5524b3dedb0a8U, 0xbd0f1d5abe861aa3U, 0x3d69c0c1bda215f8U,
  0xbca2aaaf3c88f745U, 0x3e8122ecbde2f141U, 0x3dd16afc3e20524bU, 0x3e626e273d0262dcU,
  0x3c667f35bd22b1c1U, 0xbdf4e5c23bfde8d8U, 0x3ebf0dfabeb557deU, 0xbe96f89b3d63c516U,
  0xbd88dfa2bc473022U, 0x3c3ea9ac3e3b762bU, 0xbe39972cbe27bcf3U, 0x3c89c4db3e9ae878U,
  0x3e8da2453e0b02d0U, 0x3eced2a1be7979c3U, 0xbd815dc0bd82cef0U, 0xbe897b3cbd8b3419U,
  0xbcf990a93ebb7a3eU, 0x3d7e623abe013a01U, 0xbdb0ee24be0ceca7U, 0x3dfb09133e1dac47U,
  0x3e30746c3e5530a3U, 0x3dc1e8afbe1b3d43U, 0xbe2f2a753e9fe249U, 0xbddd9b9ebcd19294U,
  0xbe1068d9bd805470U, 0xbee2b3433f0240e0U, 0xbcfc1a28bf226813U, 0x3e83d981bdef97d5U,
  0xbe4b74063ef5cb59U, 0x3d9b0459bec06e90U, 0x3e02b3e93e5b14c7U, 0x3d3af2e33e19ad17U,
  0x3e8f860b3e810ee0U, 0x3dcf2aa53d8a8b6dU, 0xbcac97bb3e0a213bU, 0x3dd79f15bd7ec257U,
  0x3e30af5b3e56eb0dU, 0xbdbcd4af3d5ada1eU, 0xbdcf4f51bdcfe144U, 0x3e148f1dbe55f2c1U,
  0xbe18b89cbd2740cdU, 0x3d980f48bea1efb4U, 0x3dc2fc78bc94ff46U, 0x3e82e6283da6c059U,
  0x3d2204cd3e47764fU, 0x3c1ee3cf3ba44ed8U, 0xbdbea0813de0714aU, 0x3e6c5fd9be1a8d31U,
  0xbe05bff23dcbf903U, 0xbe69bd473de6cc27U, 0xbda15645bde44ee6U, 0x3e735db13e9e6006U,
  0x3e01a4ce3cb74355U, 0xbc1dcd19be37a587U, 0x3d63f9ab3e0ecd6dU, 0xbe1d8f1d3e12cf72U,
  0x3ea9d0f63e5f4553U, 0x3e1e6c0bbcb56610U, 0x3d5ec77f3de03838U, 0x3d34ecd03da14f05U,
  0x3e4b3cefbdcc92a0U, 0x3cff3ae43d213fddU, 0xbe4924bf3d9f6c4bU, 0x3e440ef2be507621U,
  0xbcbc21d3bdcf8e23U, 0x3e6ad4db3e2c2d49U, 0x3d2a0478be44439eU, 0xbe6e8e6abe4e5534U,
  0x3d3f837abd4fa377U, 0xbe09f899be46e326U, 0xbe300bdcbe6f6a8dU, 0x3bca69083db5d1ddU,
  0xbd945eb6be356010U, 0x3ef44f16bece028bU, 0xbd8a25973e084329U, 0xbb75acb7bd0137c7U,
  0x3d34a6b0be2d0009U, 0xbe295f973dc32e17U, 0x3d6dcdcdbf80bb7aU, 0xbef69172bd036ebcU,
  0xbdb14288bd594f03U, 0xbd08484c3b176605U, 0xbc45948e3d6d71c9U, 0x3dc4c384bdf4c999U,
  0x3da03f49bd0222afU, 0xbe0aa3d6bdcc1c4eU, 0x3e6a8babbd9a8803U, 0xbe1cd4c93dd0d746U,
  0x3d89923e3e838d53U, 0xbbd1272f3e2dc81fU, 0xbe1f910e3d8650a3U, 0xbc1ef559bd0ca4ebU,
  0x3e387e90be7152a0U, 0xbdb0f4103e654673U, 0x3d85d0fdbd37d0a8U, 0x3dc82261be25a436U,
  0x3d8499743d912ee9U, 0xbf076c323bb00689U, 0xbda2596bbd944374U, 0xbdf80221bc8a0928U,
  0x3ec527953db60f59U, 0xbdedcdc3be3fa632U, 0x3e4d756d3e02b30fU, 0x3e45cf453e3d924fU,
  0x3c99512b3d4f3a0bU, 0x3de9b9893bee1ad9U, 0x3c7ac752bdfca24aU, 0xbe1ae8e03e4d9959U,
  0xbe1aae633d1ea5e1U, 0xbe25f6ce3e452401U, 0xbdc66ff1bda38bf7U, 0xbe5955e83cfcde6dU,
  0x3d2e3b373d4b8d9bU, 0xbcf4112e3e06820eU, 0x3e282e13bbe72b8cU, 0xbe77f16bbe340a42U,
  0x3dcb3a39bd47be5dU, 0xbdb1f9593cbd507aU, 0x3e157d60bdeb940aU, 0x3dff0645bd9adfb2U,
  0x3da707943d4067a4U, 0x3d48915cbdb6fd48U, 0x3a9bb2fe3d3392b7U, 0xbb8ccd753d930d5cU,
  0x3e0e7453beb7c9bfU, 0xbe7903e6bdaf0f3cU, 0x3dfc9e22be3550f1U, 0xbe8e244b3cc199b2U,
  0xbe2243a8bda548c2U, 0x3e008b123d7c359eU, 0x3d2940c0bdd2b547U, 0xbd1c7ee4bb93c98dU,
  0xbe21b96d3d81be21U, 0xbd7fa0e5be2755b4U, 0x3e2ceb22be0cdcf2U, 0xbd7494b1bd5ddcf1U,
  0xbb3ffab03de4ede6U, 0x3df078b43ea2f3daU, 0xbcfcddd13e0998c8U, 0xbc77b024bda3a82bU,
  0xbcbfc4b6bda0ebfcU, 0xbdd8191f3d9a7797U, 0x3e885686be3cd541U, 0xbd0c83e3bdfe7637U,
  0xbe2ded14be28b28cU, 0x3c0a1bdfbe7cbaffU, 0x3dc2140c3d07c355U, 0xbe1848a63e127cbfU,
  0xbe2f9cfbbd8b9609U, 0xbe34ba2c3e2a1a1eU, 0x3ed30670be5872afU, 0xbe0d2a20bdc1a099U,
  0xbdc609a2be2f1586U, 0xbc63c3aabc5929e8U, 0x3d242bc7bd932e88U, 0xbdfd48843e311d10U,
  0xbd88484f3c8cf17fU, 0x3dbdbea0be7b6d2dU, 0x3e6e5e2bbe3278c6U, 0xbe24598ebe3b6c97U,
  0xbd977cf7bd30e59fU, 0xbd84a41ebdf41f75U, 0xbe5c86893e59f198U, 0xbdba9cd33c779690U,
  0x3e8028f93de86497U, 0xbbd14ee2be7337bbU, 0xbe532fc43e6e5304U, 0x3dccb8f4be8e4bb4U,
  0xbe38ca0ebd5861f3U, 0xbeaaa1043e1b2a9aU, 0xbe790652bea2ecafU, 0x3de10220be420875U,
  0xbdc925d23e033477U, 0x3dababc7befb8d41U, 0xbe453412bbbb369aU, 0xbe850ca23e83309aU,
  0x3e7ffe683e7a64dcU, 0xbcc400e7bdeda56fU, 0x3e1a75ddbdb5d42cU, 0x3e0f0e603e939a48U,
  0x3dfdb479bd999538U, 0x3d79e958bafab92fU, 0xbe1c42d73d693320U, 0x3e214d24be42e607U,
  0xbe34e5013dcfee2fU, 0x3e2f6d1b3ed01b8eU, 0xbd4524cd3d49e104U, 0xbda29f46be3fa1cdU,
  0xbcc213e1bea64cceU, 0x3d96cd86bd4dfa9cU, 0xbd7c9783bdc681ffU, 0x3d7e1ca9be09935aU,
  0xbe505c04bd54991dU, 0x3e1c1e35bed47fe7U, 0x3e0301f33e4ad9a3U, 0xbefcb2e0bdca3af4U,
  0xb9a8769cbe8c73caU, 0xbe24ff753df52de0U, 0x3e0b1d7bbf03b24dU, 0xbee374f63b9e18fbU,
  0xbdae48e8bd8d006aU, 0x3d3638fd3e2bbe07U, 0xbb3cac94bda0119cU, 0xbe408ecb3cd05241U,
  0xbe4202ec3dffa43dU, 0x3da71c77be51d4b3U, 0x3de9c404bdc389ddU, 0xbe9836503cc875afU,
  0xbdb5c3933e18294bU, 0x3c885a9abe13be7fU, 0x3e4b7d34bdde5620U, 0xbb7f98ebbd3bf1caU,
  0xbe6de09f3d5313d5U, 0x3ca3600e3ad6e3c9U, 0xbdfae0973d188113U, 0x3e7e6b1d3ce0f954U,
  0x3d3e21c5bdb63075U, 0x3dbe9ecabe2185ffU, 0xbcc00f0d3d19a2ebU, 0xbeb17c80bd42c4a5U,
  0x3e193c823e846fa0U, 0xbd957d69be044ca7U, 0x3e683e76be2956d4U, 0x3d99c05dbe2a2b56U,
  0x3dae72553d679e41U, 0x3d813b823e1098d7U, 0xbd119a563e4477b3U, 0x3daef30b3e1017a0U,
  0x3c7975983ce2dd27U, 0x3cb31e4fbd3f72d6U, 0x3e2ffdb93e7a0fceU, 0x3e85f8623e02c5bfU,
  0xbe21aefa3e62ec2cU, 0xbdfedccebea06eb1U, 0xbe07a93ebe3e8434U, 0xbbc5d35c3d0136f8U,
  0xbdf203f4bda3a556U, 0x3d766e85be2ffe6bU, 0x3dd5cb193de7ccedU, 0xbcd11c4f3d3cc26cU,
  0x3def0e7dbddd748eU, 0xbda372f23e9a0e89U, 0xbe2565303db529a9U, 0x3e7f642a3e1420f5U,
  0x3d5bc3cf3eb21f22U, 0x3de7f52a3d503989U, 0x3e98b0b5bd880abdU, 0x3e99ce89be391d9cU,
  0x3df64c74bd6b26b7U, 0x3c5039703d8a07f7U, 0xbd63ca023d149bbaU, 0x3d9c61f93a1d68b6U,
  0xbd5fd28a3e431704U, 0xbe301e713d52796fU, 0x3e514c273e600c1dU, 0x3e3a2ce03e21f41fU,
  0x3d7117c8bd3a075bU, 0xbd032e50be8573a9U, 0xbe3ff05bbbc97aa6U, 0x3da2f2fabdb5e6b3U,
  0xbc81bc50bce76d8fU, 0x3e07047abce70eb2U, 0x3dd81ec93e7c3aa5U, 0x3de12cfd3d844b28U,
  0xbce84818bdd8e1cbU, 0xbde25c033e1243a2U, 0xbe76142fbe5b3948U, 0xbe39a0ccbe2bcfafU,
  0x3b889b2a3e993e31U, 0xbc9a42adbe6883a0U, 0xbd108f8abd9ef3e7U, 0x3ee22172bdca307fU,
  0x3da3f2ef3e088fb5U, 0xbe049145bdf3c025U, 0xbe03bb493e33766cU, 0x3e47699a3d5157c1U,
  0x3dbff86a3e7d1e3eU, 0xbe4fd9b73e313c4dU, 0x3c08ff6d3ddc6e7bU, 0x3e1777c4bacd45ddU,
  0xbd405405bea521c5U, 0x3e23d0573ec57a7dU, 0xbe0733ddbde2e280U, 0xbe6045073d1d442fU,
  0xbe1e5a9e3ceb6bb9U, 0x3c99e9f4bd857b2bU, 0xbdb25dc3bd5f4fd1U, 0xbe1ad040bd8f665eU,
  0xbd4900d03d9434fbU, 0x3e4d163fbdfe47c9U, 0x3df0f9e13e3237a2U, 0xbe275a343ab74865U,
  0x3e19fe24bdd00ac5U, 0xbe5798663ea54c0aU, 0xbce0d3aabdf768f0U, 0xbea34afd3d512552U,
  0xbe429780be184b80U, 0xbd5bf6793e55aee2U, 0xbda49cdf3d1abb5cU, 0x3c9c9f0abe224457U,
  0xbe75f5f63e064c4cU, 0x3e07228fbe5c089bU, 0x3dec7692bde2d20fU, 0x3cd061f93dab9ae1U,
  0xbec58c753e071125U, 0x3d93f47a3d4e35a4U, 0x3ddb54763e35309fU, 0x3c4db8303da57da2U,
  0x3cd51a8bbdc7c6fdU, 0x3e059e2abe734e12U, 0xbe0d1d1fbc416744U, 0xbecb77dcbe66af03U,
  0xbe0e781bbd8262cdU, 0x3e361049bec93f3eU, 0x3e1ec0fe3e15b996U, 0xbe9ec4673b77480eU,
  0xbe1aeae4be4bae89U, 0xbd07b7713e2dc7bdU, 0xbdb855aebe0e94e9U, 0xbee19cb3be02877dU,
  0xbd4dd651be0905aeU, 0x3db6004c3ce9a630U, 0xbe31c81c3dd22b56U, 0x3c34a7fa3e43d06fU,
  0xbc840f49bd92290dU, 0x3e844721be5fa9b6U, 0xbd9d8b18be17cddfU, 0x3d514e7cbdcd6a52U,
  0xbe72388a3e00312eU, 0x3d28616b3ed7c71cU, 0x3cea67fabc9e5f8cU, 0xbd9776febe605706U,
  0xbd0486b43b5c097fU, 0x3db4b5d6be978c94U, 0x3e0308d8bda24ad1U, 0x3df42a203e9e0715U,
  0xbe8574813db7fc54U, 0x3ed2cc83be92dd86U, 0x3d835e503d06f281U, 0x3edcc230bcd4653cU,
  0xbe9ff10cbe0788cfU, 0xbd9000233d79eb6dU, 0xbdc5c719be7318d8U, 0xbeda135abc91cc6aU,
  0xbe8b1ad2be0c1c87U, 0xbddd17c5bd2f9ee9U, 0x3d993cb7bdcb8a8cU, 0xbbd5e51fbc239775U,
  0xbdaa3dc23ec41aeaU, 0x3e4165bdbe428b5bU, 0x3f072b01be019634U, 0x3e2957c53ecfe2f1U,
  0x3d5c0e713e1980cdU, 0xbe0e4167bebc2833U, 0x3c37f7c83db428baU, 0x3e64600fbd44fac1U,
  0xbce7fd1e3eb9b1c1U, 0x3e174a66bc9a3913U, 0x3def88acbd8a93e7U, 0x3da5ada13eb90e67U,
  0x3d9af1f5bd089317U, 0xbbf9aa003cbd7648U, 0xbdd49170bc7a5097U, 0x3ef34790bcb31486U,
  0x3def217f3e106f50U, 0xbd507153ba69b33eU, 0xbe933e41bed7ad7bU, 0x3e3b15d1bcddc156U,
  0x3e79de5e3e67d612U, 0xbcf48415bde49143U, 0x3d7422f5bd881252U, 0x3c894c74bcedb9d3U,
  0x3de6b659bcdcd9aaU, 0xbcbecd5f3d34fffdU, 0xbc0d1abe3d615ec4U, 0x3e877efbbd4c2a19U,
  0x3daa572ebd9aad12U, 0xbd4c580dbe3999fdU, 0xbe332e8a3d8aba62U, 0x3e2191f7bba4f049U,
  0x3d90e74fbade2251U, 0x3e00941e3c5f9f5eU, 0x3ca3d3db3dcb2c98U, 0xbdf30cea3d892e8eU,
  0xbd626ae73d79e498U, 0xbdf4ee853e9545b8U, 0x3d03b0edbe220ba2U, 0xbe7cca063c146dedU,
  0xbdbb1c7f3e0e6a02U, 0xbd822c8bbdcd0e1aU, 0xbe218c103d1c1f32U, 0x3e4890763dca10d6U,
  0x3e0224b13e2b04d5U, 0xbd1f7f84bdee5b79U, 0x3c30f7ab3e123b40U, 0x3e0e8068be53894dU,
  0xbe6c38243729d79eU, 0xbdcb32563d88a803U, 0x3dbbd8213ce11bcbU, 0x3e0198653ddf7d49U,
  0x3d53463fbdba616cU, 0x3da457bf3d4df9feU, 0xbe2ea58f3e19c79cU, 0x3dd136963db74d0eU,
  0x3cf34e8c3d9fbf9dU, 0x3e0ee99dbe16d216U, 0x3e2b8ee33de54df9U, 0x3e54a5a6be99eca2U,
  0xbde0a66dbe38469fU, 0x3e546f413e6b88f3U, 0xbe446e3d3cd9aa8cU, 0x3e90b459bc7d7137U,
  0x3bf12ece3d88ca4bU, 0xbda24650bdaac938U, 0xbe53e352bdb406c7U, 0xbdaccbb73d3ed068U,
  0xbd8ec7ebbceced6bU, 0x3e1ccc4f3e1a82a1U, 0xbe4e5764bd7db727U, 0x3e11d616bcdcdc89U,
  0x3deb868e3d74e8ecU, 0x3e08f50fbdcbfaccU, 0x3cc91081bd824d0fU, 0x3e8be6ec3d814381U,
  0x3e693f60be4158c9U, 0xbd09b8053d2d288fU, 0xbc48dcc83b7415efU, 0xbd1694273c854f84U,
  0xbd034555bd8a7c82U, 0xbc285b063e39da7bU, 0x3c18b493be15095fU, 0x3e3a8fcebe951be7U,
  0x3e96add93e024f01U, 0xbe726cd83d049dd0U, 0xbcaf525cbdba9253U, 0x3e0e6ca1bd23b7c9U,
  0x3e335372be8aaf96U, 0xbd0a133abdfb0839U, 0x3e5d6e9b3e769086U, 0xbb4361ddbc8e162fU,
  0xbceef5fb3e8ab2e5U, 0x3e2f692c3da4816aU, 0x3e43db473d7eeb61U, 0xbdb78b873ed5cffbU,
  0x3dea30febcb325d5U, 0xbe9c91a43c66935aU, 0xbcd96e453e0ddd47U, 0xbdf4723abd6042a9U,
  0xbe3af4a0bd277f91U, 0x3e6f23b03e77732dU, 0x3d94d0e13d0fa0b8U, 0xbe46106fbe26bb25U,
  0xbe4722c139d69a3bU, 0xbdc24c7c3c9ff7a3U, 0x3cd07c75be67b572U, 0xbdf63e7b3c0e8d47U,
  0xbdb9e4b9bdc17ca5U, 0x3e67c62ebe922d77U, 0x3e5b32ef3eae981eU, 0xbe28c5d83d665ef4U,
  0xbe20d651beb00f13U, 0xbd47102c3e2da492U, 0x3e39624cbeb44cf5U, 0xbed452b3be3ea5f9U,
  0xbda9ef3ebd025af7U, 0xbd49926f3e5bc9bbU, 0xbe4b95c9bd663d68U, 0x3d824a1a3e598b55U,
  0x3e05b9ffbd72a395U, 0x3dcbdd6fbd69636cU, 0x3e7d1e94bdae1ff4U, 0x3d3145493c8c8bc9U,
  0xbe9666d93e7e4d47U, 0xbd25eb953c9a4caeU, 0xbbb52a043d27720fU, 0xbd8c76b2be009e8aU,
  0xbd8df7593d8d1f47U, 0x3daa3f63be644d62U, 0xbe5fc0e43db7d602U, 0xbd4376b63dbee7a0U,
  0xbed55743be7c9e21U, 0x3e35d5abbe562a00U, 0xbcef74d53d80a788U, 0xbef99680be79a207U,
  0xbe83cbb33dd841c4U, 0xbe9607e13d196a2fU, 0xbdff10f6be13a67bU, 0x3d654800bd0d82e9U,
  0x3e557e45be891a9bU, 0xbd96de093e80219fU, 0xbe225dec3ce24626U, 0xbdf75d723d8b38b5U,
  0xbe62608cbdaced71U, 0x3ef460a7be6eb407U, 0xbc7f59f9be8db5abU, 0x3e756b7ebdb466b3U,
  0x3d8a7fc93df17b8cU, 0xbe590403be64891eU, 0x3d76a0d5bdca1a4bU, 0x3e0110443c4335f9U,
  0x3da800ab3d7dd7c4U, 0xbc032f2e3e24cd3aU, 0xbe4a17683e31e80dU, 0xbdc532b6bc202db1U,
  0x3daba8ff3e431b3cU, 0x3e0088833a27cc41U, 0x3e0b203e3e2e2026U, 0x3dd85d703c256339U,
  0x3e8ebb47be5bc6aaU, 0xbda773c8bdd1a859U, 0xbe24f9903e15f1eeU, 0xbd849abb3ddddc60U,
  0x3da122e0be0e09c6U, 0x3d694e93bddf9274U, 0x3ecc1e523e189ae6U, 0x3e181a20be2509ceU,
  0xbe01d372bda24a54U, 0xbda2c61d3e9f3ec7U, 0xbe9663f6bce35a6eU, 0x3e52905cbdaab506U,
  0xbd1bb5b13e583fd0U, 0x3dc1361f3e32871cU, 0x3d655dd7be255d96U, 0xbdef7de6be33c2d8U,
  0xbcac7cf5bd8c53bfU, 0x3dd39779bd4fb621U, 0xbd01dff3beaa0d5dU, 0xbdb8045abe179ec9U,
  0xbe0d8aa8bdf1f448U, 0x3e26ba1e3d835373U, 0x3dc591e53d43e9aeU, 0x3d5195f33dab1f2bU,
  0x3da7b4fb3d49909bU, 0x3cc8896f3d9c7bfcU, 0x3ec850cd3dacde48U, 0xbf1821f1be1c5e14U,
  0xbe1a34eabe96f5e1U, 0xbd9381573eafc297U, 0xbd02422f3d487b54U, 0xbdc0f05c3db16ecfU,
  0x3e5a36513be403d1U, 0x3e6c1ee3be86e52aU, 0x3ea86f8c3db56035U, 0x3cbc39373dda14f9U,
  0xbded0f673e4af701U, 0x3ec0a42a3ec1e130U, 0xbcc4cc86be51ccc9U, 0xbe733124be2a9474U,
  0xbeacd7f43d975ff6U, 0x3db45ba9bcf4246fU, 0x3d8ec59ebee209ecU, 0xbd7695d2be944c9bU,
  0x3d38c861bcee12d3U, 0xbd86fc4dbed0ccbcU, 0x3ca44c4dbe3133dbU, 0xbd8ad1c03e0e85aaU,
  0x3de21479be6971c6U, 0xbda81b43bd5634a1U, 0xbd0ad366bec3506fU, 0xbe3d23c93d149b5bU,
  0xbecc48c1be2ad0feU, 0xbe36f26c3e374b9fU, 0xbda14f9bbe62bc93U, 0x3c982ce0bdfd6138U,
  0xbe0b1fd83dd5f73eU, 0x3e873e79be6b0290U, 0x3e9d83ffbe14d1a4U, 0xbe2e2928bde2fce2U,
  0xbe852a093e38b745U, 0x3b0369dd3dc6f70bU, 0xbe81ab433d905b67U, 0x3dd06224be0e734aU,
  0xbcb3916cbcc0b32fU, 0x3dd496d0bebf702cU, 0x3cb24dd8bdfb82efU, 0x3e83e6393b5413c3U,
  0xbe646db1bd337b9fU, 0x3e29233b3e2e0af7U, 0xbda76c5abe820fe8U, 0x3df095bdbcfe1e6fU,
  0xbd33997a3e3e0d22U, 0xbe1ec00bbe81b7f5U, 0xbc7e0132bf153212U, 0x3c8f1790be97a6b1U,
  0x3e3f1208bdaa3a33U, 0xbc5449543e8218e2U, 0xbcb516fd3cd6e864U, 0x3d03b1ea3e5d5356U,
  0x3dce4bd73d0b6541U, 0xbb18c842be5554c9U, 0xbe9aca9cbdcc9873U, 0x3d347e39be642e66U,
  0x3d64de353c993f8cU, 0xbdfbd07b3e05593bU, 0x3b6bd35fbe705fccU, 0xbb20bd6c3c43a3b7U,
  0xbda27c53be7ad6c3U, 0xbdf351563e12a71aU, 0x3e81dd2d3d9a98faU, 0xbe45aebc3dd50030U,
  0x3d987f82bcbaf4acU, 0xbc4314de3f03b6ecU, 0xbe08dfadbe06f019U, 0x3b5ef0e13e574bcfU,
  0x3deeb43e3e12b38eU, 0x3ed0d088bddc1f38U, 0x3e2fa6e93d8ff607U, 0x3bfc22dd3d2bd474U,
  0xbde0af093e89ff17U, 0x3e633f42bd322003U, 0xbe4f13a8bdd2f872U, 0x3e17662b3d90cfb9U,
  0x3e25ee07bc6b32ffU, 0x3df0b4fd3d3681ceU, 0x3eec0b6e3e261678U, 0xbdd410f03d688434U,
  0xbdc9076bbe29dc7bU, 0x3e6c85803deec057U, 0x3e8c71e03da37e10U, 0xbe5154c4bdba7838U,
  0x3d90a69dbe3f9d79U, 0x3debc716be4ab24bU, 0x3e1dde21bded686cU, 0x3e57d0b9bb94c5cdU,
  0xbe760554bd9c236eU, 0xbe8d68b6be68a8b0U, 0x3df85ad6be49521fU, 0xbc8c5a7e3e2c4402U,
  0xbd8391143d9434e1U, 0x3c94b9e2bd9e3134U, 0xbd30dd99bf1e8be5U, 0x3dbf06d63e4870b9U,
  0xbe127d743e970f22U, 0x3d08b67d3e13b7b8U, 0xbe281559be2e9679U, 0xbd6655dd3e8bd9ffU,
  0x3e9c5276bd43097bU, 0x3eaa34e5bcbac110U, 0xbd8dc8763e5779efU, 0x3dc8654d3df680f5U,
  0xbf3419ad3e069febU, 0xbef770f23eb8ea98U, 0xbeb66544be10d891U, 0xbedae0a53d909670U,
  0xbf2d4e493d11020dU, 0xbe1dfdfb3e183ba8U, 0x3e9c8395be9a3a84U, 0xbec0e8d2be55d4d0U,
  0xbee38debbeaac5f2U, 0x3e67c9a43dd4904aU, 0xbea53736be5f53f4U, 0xbcb7bb013f16821aU,
  0xba4c28613f011359U, 0xbc13a87abe911c9eU, 0x3ea3d7283e526311U, 0xbe9e7149bf5db913U,
  0xbd99d0f8be8e090bU, 0x3f17002f3f3ed903U, 0xbf87e8edbd42829dU, 0x3e0649013f4519b9U,
  0x3f046cd5bed4b5feU, 0x3f4e877cbdcedee4U, 0x3f10a55f3db52104U, 0xbd2fbfa83e67aef8U,
  0xbdc56756be3b969dU, 0x3df408aa3dea7661U, 0xbb6c4a32be8e5238U, 0x3c41318c3d10ec70U,
  0xbdc26b65be9d64d9U, 0x3db1f1dc3c1ae5d1U, 0x3d9841dfbddf926fU, 0xbecb36b63e16da69U,
  0x3bc507343cb55bc4U, 0xbcf6bd0a3ebde5b7U, 0xbe330eeabb8985beU, 0x3dc5ed31be0a3163U,
  0xbde3acfa3e4b4ea8U, 0x3dfa12f7bddbf851U, 0x3de9d6923e28ad8aU, 0x3e62235dbe9178c9U,
  0x3e089af93c8ad3e1U, 0x3e228d1c3e12ee69U, 0xbe8b6751bd1cefefU, 0x3e1fcf27bdd9e1f2U,
  0x3d0deb8fbc458dd5U, 0x3e9a8e4fbdbf6559U, 0x3e846c123dd18c1cU, 0x3dc7d9883e1da6d7U,
  0xbde3a3d1be53ba97U, 0xbe0dea35bc7f9d5cU, 0x3c958e33bed54573U, 0x3df3967fbd8ad8feU,
  0xbcd591f2be20b45cU, 0xbc97d8d63df581cdU, 0x3e8c49a03d2c2badU, 0xbdaab61fbc07048cU,
  0xbc9f1dac3c5fe8d7U, 0xbe2f15f43e3f381dU, 0xbda197a3be21f4e6U, 0xbe873e133d4c011aU,
  0x3d91bd773e94fa5eU, 0x3de4d452bd84ee44U, 0xbd8f0caa3d95703aU, 0x3e815bd5bb9a7507U,
  0x3e50c5853d64e9c5U, 0xbdd585a73de47821U, 0xbe4d45efbd858381U, 0xbdaa723bbdcd5331U,
  0xbd89bb04bdd8df7cU, 0xbcd76d5fbcd5a260U, 0x3b791ac5bce58d2dU, 0x3dc1b4413d8335c1U,
  0xbe2dd350be7f33caU, 0x3dfccdc1bd8543f8U, 0xbcdce45b3e494421U, 0x3e4e4907bd84dbaeU,
  0x3e036d753e715918U, 0x3e14af0fbe2c7517U, 0xbc75b3e13d5b6086U, 0x3e6bc7d0bc86eacfU,
  0x3d667721be34c0e2U, 0xbd1530d8be2b2fc8U, 0xbde932a0bd97fc02U, 0x3dbe01de3cf552e6U,
  0xbe2733dfbd8501acU, 0x3cffe6f93d12d355U, 0xbe31e0b739f5586cU, 0x3ec75015bd470c8eU,
  0x3c934b5a3e9aed6fU, 0xbd82301b3d8e34ceU, 0x3e423d173c69a970U, 0xbdc28fbc3d8b2f70U,
  0x3dfe24e1bd876730U, 0xbcb0b7a93be3e4c0U, 0xbdf995f2be01795fU, 0x3e070694be058390U,
  0xbd35bb303d182e8dU, 0x3dd7b818be65f2c4U, 0xbd907691bd182270U, 0xbd84d7613e12e0b1U,
  0x3cd2994fbc9eae36U, 0x3cd57c86be508680U, 0x3e8e1a9abdeda40fU, 0x3db39fb9bd4bc4aaU,
  0xbd9a57ddbe569b24U, 0x3e45338dbcae11a1U, 0xbdb6550bbddfdbbaU, 0x39f3b3d73d4d416eU,
  0xbe429f583e8dda19U, 0x3ec7a5b3bd25998eU, 0x3bc89c95bebb729cU, 0x3da5de43bd48ad01U,
  0xbce18ea23ec66fecU, 0x3da394743e101631U, 0xbe51db5abe6951a9U, 0xbe253d383f1a3e41U,
  0x3e57444d3d2822bfU, 0x3eb422813db36069U, 0xbc4ead933c880b4cU, 0x3d990036be2a1effU,
  0xbeca2862bde802e1U, 0x3d8e24db3e388147U, 0x3dfd289ebe167922U, 0xbe5f0f6bbd051df4U,
  0xbcdf4116be02bdf9U, 0xbe11dfb5bdd9e6feU, 0xbe1b9b5d3d647b5aU, 0xbea026a33e4843d7U,
  0xbe9a0978be824036U, 0x3e43286cbe6d6ce9U, 0x3e1ebc113e4c52c3U, 0x3de4ed653c397da1U,
  0xbe93e224bdae3d7bU, 0xbd4796883eab711aU, 0x3d8cd42dbc12dfddU, 0xbd949bf8be3afa4dU,
  0xbdc99297bdf9f9cbU, 0xbd8738233c2fbca8U, 0xbdb5ef0cbc97cfabU, 0x3c808a0b3c064a5aU,
  0xbd5fdf47bd924e5bU, 0x3ea792a8bcc967dcU, 0x3e4979e6be3d14fcU, 0x3cee52dd3e136605U,
  0xbe188fde3e859095U, 0x3dbeb67fbe622c1dU, 0xbd4f95dcbe7ac45eU, 0x3e7774f03df9edf7U,
  0x3dbbd0bdbda7846aU, 0x3d0be2e7be4f36f4U, 0xbe03acb13d8f3bb5U, 0xbd875c4f3d5a5434U,
  0xbd83ce423d92fc60U, 0x3d8b18bfbba91186U, 0xbc2165eb3d2199efU, 0x3e392ba3bda9e50fU,
  0x3c23eb01bcadb255U, 0x3dbd2aee3d865e2cU, 0xbe2b8f193bc02c73U, 0x3e08e5913d618caaU,
  0x3e4f1e563a54b1dbU, 0xbd7115b3bd59bec5U, 0xbc7d15723e0b0d1eU, 0xbd9ae8bfbe3cc338U,
  0x3e7dc56ebe2b2d25U, 0xbd5074f03de4e703U, 0xbe02200e3dcd2c0bU, 0x3ea859ef3de40d21U,
  0x3b1f6ec23d258e71U, 0xbd398a4ebec1b533U, 0xbe7529fdbe18f697U, 0x3e590a723cfb4ee3U,
  0xbd3765013e4d86e9U, 0xbd3a0afebd6d5a24U, 0x3cde5fd53e32147cU, 0x3da9cbf53db2a805U,
  0xbd932fce3d81c203U, 0xbefc2fd03e93185eU, 0xbdbd218ebdf89ae7U, 0xbea9e6b6bdb27911U,
  0xbcc2b4743e6b3774U, 0x3e51e9debc80a2d7U, 0xbe2c19603f1cb044U, 0x3cc7e53f3e20430bU,
  0x3e8d4d873b2d083dU, 0x3e50b902bce9b376U, 0x3d5f78b1be0d7ce7U, 0xbe732f983d5c09d1U,
  0x3e513478bf4934f6U, 0x3e98a4173e1d10b0U, 0x3ce2d6883a87c19dU, 0x3da6096ebe097deeU,
  0xbe02126e3e9925c4U, 0x3d9ec6c0bdcdd509U, 0xbe609098bde856bbU, 0x3df689a8bdbcb859U,
  0x3df69b5c3e01de1fU, 0x3d6e5ad0bbe4261bU, 0xbe272fbe3dd56a6aU, 0x3d81ecd6be48a5a5U,
  0xbe4936653bb3b7bdU, 0xbebd4f2d3e70fbc0U, 0xbecd369fbe9051cdU, 0xbc97b9babe0f702aU,
  0x3b0819e73ed423e2U, 0x3c805794bdc277f6U, 0x3b5ce1093e55307eU, 0x3e58ad1bbdd9196dU,
  0x3dc99902bcabe359U, 0xbd063dddbe0744e8U, 0x3b9c1eb73df5ac9eU, 0x3c9f44b2bd128be1U,
  0x3e9eb9c8be393e2aU, 0xbda7da0b3da2531dU, 0x3c3c3fbabbf69424U, 0x3e67ad14bb005145U,
  0xbe0f9a513dfc4543U, 0x3ead97593ea58cf6U, 0x3e2afb1d3f1d0a13U, 0xbedc9b9abdf34e93U,
  0xbe8d146ebddd13fdU, 0xbdf3aec6bf070d90U, 0x3dd14d5bbe73e042U, 0x3e6e65fdbe58c503U,
  0xbf0edd75be9cc6a4U, 0x3ed6986dbdb89689U, 0x3e046a443e0fb737U, 0xbe1c7d443c9ccd0fU,
  0x3dd459743dd536ecU, 0xbeb6d7bb3f072499U, 0x3ec7d3b1bf242f5dU, 0xbf3d6616be8a5002U,
  0xbb8a73b7bef5fe0eU, 0x3d71153d3f0a08e1U, 0xbdd05e9bbe2257acU, 0x3cddcdc83ed6dcc9U,
  0x3d99695b3e6da1bbU, 0x3f0ec798beb1a05aU, 0x3ee2678bbe7bb9cfU, 0xbe317c8e3d0f8374U,
  0xbdcaffc63e0f867eU, 0xbd2c145dbd5d73b7U, 0xbd0f60d5be739761U, 0x3de1ca9e3be102bdU,
  0xbd038b113c33269fU, 0xbe03a8ad3da9455eU, 0x3c8edbef3dc70914U, 0xbccd4c443e4140fcU,
  0x3d86c4393dada5bbU, 0xbd90b9943efb5e65U, 0x3bf03466bdbfae9eU, 0x3df50a6e3e00ee32U,
  0xbdc5727f3d828987U, 0x3e8600a1bd1b1355U, 0xbc176dab3dcc9a6fU, 0xbcaf47d2be2b7157U,
  0x3daa4e0abc390bb7U, 0xbcbcfeed3ce1f790U, 0xbe06c28c3d992665U, 0x3dc22bcf3cd8bf7fU,
  0xbdf0323ebd520dc1U, 0xbca623e7bcbbccdeU, 0x3de2fdb93e131924U, 0x3d445bce3d648386U,
  0xbe0efc17be28d1f4U, 0xbd121a49be687265U, 0xbeb40ef93d2b31dbU, 0x3cd984993d868e2dU,
  0xbd24cf1b3dc39095U, 0xbd90820ebd7a1fd8U, 0x3d45f0e33e417320U, 0xbe17457d3d801f58U,
  0xbcd852c43ca1d67aU, 0xbe172d5f3cc779a7U, 0xbda35b0abe0a37b9U, 0x3e6b0f75bdf65381U,
  0xbc6275a2bd591f67U, 0xbdda8f4cbcd2d747U, 0xbef67d3fbeb20cbfU, 0x3ddbec493a7bd9f9U,
  0x3e2e9d26bddb3fb3U, 0x3d05dd86bc8f898aU, 0xbd249a38bd5ba4dfU, 0xbe283579be7003f4U,
  0x3db8a545bbd7b0e7U, 0x3d873bcd3ebb0b05U, 0x3daaf8fa3dbe74ecU, 0x3e82c039bdbddbdaU,
  0xbe377ca9bdc74fe5U, 0x3e0ad9ce3ec0b3edU, 0x3e4682843e553bdeU, 0xbdf0b295bdf2ae1dU,
  0xbdc22ffbbd8870f5U, 0xbce8c756be6da8b9U, 0x3ea3cabcbebd26fdU, 0x3d313b323d2ea7baU,
  0xbe16d451beaff161U, 0xbd27296ebd82199fU, 0x3d8f4f43bdaa0f2dU, 0x3ee17c0f3e37fdacU,
  0xbe2151703e8c571bU, 0xbe3fe0763d8e2406U, 0x3e0cef22bee12d90U, 0x3d3c261bbe30720dU,
  0x3d4eabb4bd72ecf7U, 0x3e002fa33eb7368bU, 0xbeb89987bdb6a022U, 0x3b9070e13e078191U,
  0x3e484bcd3e0cf658U, 0x3e5aec76bea9bb1aU, 0x3d2faf86be15bf07U, 0xbd49d7a83cc7eb94U,
  0xbee1f2bebe8dcd9bU, 0x3f15f5773ded5601U, 0x3daf3f7cbcd39f3eU, 0xbe2c86263c948843U,
  0xbd6ff5013e162a10U, 0xbe5d6145bf00d805U, 0x3caf2efbbe8ad84cU, 0xbebd58ebbe9758c9U,
  0xbeccdb40bed6a230U, 0x3ebd554f3d9a36deU, 0x3e58887d3ee16777U, 0xbe26c49bbd67230fU,
  0xbe915a3fbcc61ee7U, 0xbdbc05af3ea3ac31U, 0xbc9a1f473ed63c90U, 0xbe8aa5b1be5a74a3U,
  0xbe0e5260bc8535f9U, 0xbe203cefbe5d016cU, 0xbedeccccbe15e76dU, 0xbdbf57f93dbbb4dcU,
  0x3cfcbe27bd2f044bU, 0x3f6d9520be7776fcU, 0x3f2780a2be613851U, 0x3d3359e23ee3476dU,
  0xbd7015cf3e0eac4bU, 0x3d27b42f3e5247a5U, 0x3e9f1620bda64befU, 0xbd97c4733d91de66U,
  0xbe9f63bbbe5e8168U, 0xbe0b8b90bdafb4b7U, 0x3e586c5ebe4d10f2U, 0x3ddb8a73be759d64U,
  0x3d6bc3403b925ef0U, 0x3c9ace2ebeab12f4U, 0x3d2ebc743e34733cU, 0xbcabf25a3e286032U,
  0x3e2b2e8fbf26c256U, 0xbe6ce5403ebdc09aU, 0x3db2a7aebea97aceU, 0xbeea7f45be1716b9U,
  0xbe23c231be676ab3U, 0x3db775b73e24f583U, 0xbd6edb74be549e6aU, 0x3d4f6c75be4bc23bU,
  0xbe143b4e3e1dba71U, 0x3e6b3e47be7b3fa5U, 0x3ccea45ebb010bf9U, 0xbe7ae1d0bdd1a2e2U,
  0x3d88bf373d898eb5U, 0x3dbb76bbbe05de13U, 0x3d427fcabd1e297aU, 0x3d69792b3d1c47b4U,
  0x3e24c4623dc4ab5fU, 0xbc4e65893ce79a38U, 0x3e135e323db2661aU, 0xbd33c663be24437cU,
  0xbd949c2b3df3b7d0U, 0xbe46e9cb3e93a329U, 0xbb30c0383de416e8U, 0x3e958f3a3dea37b8U,
  0x3b5c6c733dcdc0d2U, 0x3e09e3b53bcb7b00U, 0x3e2a4011bd8b1b66U, 0xbd4889913da848deU,
  0x3cf0efc93db5ceb6U, 0x3d5094d5be0838e3U, 0x3ce84c873dfa4442U, 0xbe00ebb43e404f05U,
  0x3eb0cea23e2cc2a6U, 0x3d367da83e1724d3U, 0x3cace8c6bdf0d254U, 0x3e2fd256bd02558eU,
  0xbee85027bcfe15f7U, 0x3f0a75aabbbc5aacU, 0xbebfdb6e3ed7b19bU, 0xbebc66753cd69997U,
  0x3d38f89ebdc87875U, 0xbdc1a825bf0ffad0U, 0x3e281e82bf0ca70eU, 0xbe91e26fbeb49142U,
  0xbf184bd2bf0699f0U, 0x3c179cf2bf1f370bU, 0xbd0499bf3f13271dU, 0xbf703a293c5db4b2U,
  0xbf1232553c6485e4U, 0x3d1d8266be1ec314U, 0xbeffbdd0bd44cdb9U, 0xbe1a43bebe995e8fU,
  0xbeaa4be43e38d2d4U, 0xbe434f273e8a5295U, 0xbf079f2abe8a6ff7U, 0xbec7bfd43e569ba6U,
  0xbe878ecebe7180aaU, 0x3f7b19063dcfa969U, 0x3eb4fd25be701fabU, 0x3cfed06e3e9f2e4bU,
  0x3da46cc8be834762U, 0xbd1e25e9bbc3c2a1U, 0xbe4250acbdf95f27U, 0x3dd458ee3c623a16U,
  0x3e620fa5bbc824b1U, 0xbcd1ca6e3ddb3aadU, 0xbd592a693d1bb719U, 0xbc8befd23d03d19eU,
  0x3dc342c4bd9895e6U, 0xbdc9c4633e84d551U, 0xbde50427b9e5878aU, 0x3e3e9d4c3d5f7e3bU,
  0xbc07f19f3e28bd36U, 0x3e2642f3bd1fe179U, 0x3e10d590bc3aec43U, 0x3e0166cf3d7ae047U,
  0x3b9f7cce3ea36e94U, 0xbbc2cda5be5c8eb1U, 0xbe25e99e3e656ea3U, 0x3e436f30bd6d64a5U,
  0xbc8967bf3e5238efU, 0xbe57a5c23daa0e77U, 0xbe4e6425bddd802aU, 0x3e17e3c7bda14c12U,
  0xbdfa2655bd8bc456U, 0x3cff107abe855e1eU, 0x3ea20bb83df61fceU, 0x3e1ffa203e4efe37U,
  0xbd92e7e83f19f5a9U, 0xbdfae7d5bec903eeU, 0xbea0d3dd3e91858eU, 0x3e975605be99e764U,
  0xbe4d780ebd994ea4U, 0x3e910a8e3e06f1c3U, 0x3c0f6fa1bdb3b948U, 0x3f43b7283e48c92cU,
  0xbdfb89b53e056e24U, 0x3cffba3d3e6d6d51U, 0xbe27731bbdcb54a6U, 0xbe6975fdbbefc315U,
  0x3e588cdcbcf77a8eU, 0x3df050673e815749U, 0x3dbd2f8cbc81a8cdU, 0xbe4cacf13ed4d828U,
  0x3e81b226bc8a7c4eU, 0x3d3bd8f6be1cc4e8U, 0xbe9581063ebb8380U, 0x3e86cf43b9ed2923U,
  0x3e00cfd53d9c5ecdU, 0xbc8a2215bd39baa2U, 0x3e3386313e328562U, 0xbddcbe773df20f9fU,
  0x3d9ae8783e136288U, 0xbd4d9fb53d04d4cfU, 0x3bdf425abe269b45U, 0x3e93097cbda4d750U,
  0x3de677abbce9c7a7U, 0xbd9c193f3df484b0U, 0xbd910a1dbda82185U, 0x3d212d01bd266997U,
  0xbe952e9d3d9a12deU, 0x3e9ad96f3d97df41U, 0xbe4eb892be08105eU, 0x3ceedc98bd57bf61U,
  0xbe336f0d3f030dc8U, 0x3ce7797d3cd818cbU, 0xbe146d05be3a9a81U, 0xbd3a1dd03ef89aabU,
  0x3ebda1ba3e29e936U, 0x3e2f1aa23bc27e6bU, 0x3de43eef3d3beaa6U, 0xbc9fd9c3be4aa996U,
  0xbe2e05113db03e65U, 0x3d566190be9f80d2U, 0x3cb1fef73e81d9beU, 0x3b03e4d63dadea8aU,
  0xbde14763bcb9dfa7U, 0x3d8e83b9bdfafc52U, 0xbe660f4c3e5e174fU, 0x3e1de3f9bde28f66U,
  0x3d2954bf3e489bfbU, 0x3df14d403d7ef0d4U, 0x3da560033e1d97d3U, 0x3de327b33bb7906dU,
  0x3e4aa1593d24b615U, 0x3d04896fbea3f30fU, 0xbd3b1fb2be32b37fU, 0x3e14ebe43df003b8U,
  0x3e1c1bb2bd2a7931U, 0xbe111e54be013749U, 0x3e1801763e415337U, 0x3e49dff6bcd6667cU,
  0xbe376ca4bcc6134eU, 0x3d545eebbcbf5bdfU, 0x3e12f7b73cca7c3fU, 0x3dc487f6bcc55bdfU,
  0xbcfb836b3e70cb35U, 0x3b8a54fe3db4c987U, 0x3c3307be3b9df375U, 0x3e14d7bb3d821addU,
  0xbd296f753cdee2afU, 0x3dbbb6283d28b276U, 0xb99a32a3bd64f6e2U, 0xbd87778abd6b7e2dU,
  0x3c44313bbc9f58a7U, 0xbd744037bd4d27b1U, 0x3cbd12ae3ce02b38U, 0xbd1706323dc2b911U,
  0xbce6b23bbda72836U, 0xbd70867b3d1882b9U, 0x3d82ae0cbe220359U, 0xbcbdfba93d7e0108U,
  0x3dd1cf0bbd594cf6U, 0x3d767f123d35ef93U, 0x3dba2f9bbb2eff42U, 0x3de3100f3d817cfcU,
  0x3c0bfb28bda4612eU, 0x3ce9a81c3e1b392eU, 0xbcd55f7abe065885U, 0x3d7c32a23c92d268U,
  0x3e1a92a1U,
};


ai_handle g_network_fu_weights_table[1 + 2] = {
  AI_HANDLE_PTR(AI_MAGIC_MARKER),
  AI_HANDLE_PTR(s_network_fu_weights_array_u64),
  AI_HANDLE_PTR(AI_MAGIC_MARKER),
};

