/**
  ******************************************************************************
  * @file    network_f02_data_params.c
  * @author  AST Embedded Analytics Research Platform
  * @date    Wed Nov  1 15:46:25 2023
  * @brief   AI Tool Automatic Code Generator for Embedded NN computing
  ******************************************************************************
  * Copyright (c) 2023 STMicroelectronics.
  * All rights reserved.
  *
  * This software is licensed under terms that can be found in the LICENSE file
  * in the root directory of this software component.
  * If no LICENSE file comes with this software, it is provided AS-IS.
  ******************************************************************************
  */

#include "network_f02_data_params.h"


/**  Activations Section  ****************************************************/
ai_handle g_network_f02_activations_table[1 + 2] = {
  AI_HANDLE_PTR(AI_MAGIC_MARKER),
  AI_HANDLE_PTR(NULL),
  AI_HANDLE_PTR(AI_MAGIC_MARKER),
};




/**  Weights Section  ********************************************************/
AI_ALIGNED(32)
const ai_u64 s_network_f02_weights_array_u64[1368] = {
  0x3d4fde48bf670072U, 0x3d3dbfc93d2eb17cU, 0x3e55ddec3e66ed6dU, 0x3e7a75153d901646U,
  0x3df8679a3e8c54b0U, 0x3e0cb5d13e0f8a5fU, 0xbce2f6fa3e780fa8U, 0xbdeb05b4bd62214dU,
  0xbdca67a8bda30f5dU, 0x3de1ded93c2d4e19U, 0xbccb27e13d794aabU, 0x3c634f0e3d930bccU,
  0x3e837e8b3d959917U, 0x3e10154f3e2127c3U, 0xbc1fd91c3cf5983eU, 0x3dcf06853e46503eU,
  0x3df34971bd9f9248U, 0x3d33fd803de30df1U, 0xbdcaa6c73d4cbd48U, 0xbe0ae11abe256a54U,
  0xbce2c5f13c9baae0U, 0xbe0844193e3322ddU, 0xbc1576e2be615ca5U, 0xbe01280fbde75d03U,
  0xbd2f6620bd8d8aeeU, 0xbc4ab846be269961U, 0xbddc17de3c4d4644U, 0xbe894d44be3b2223U,
  0xbc9fa2bebf44e6deU, 0xbd9a524dbc56af83U, 0x3e125727bd4bae9eU, 0x3daa32d4bc621aedU,
  0x3e0125643dd9bd10U, 0x3dcf3cfc3d7d5748U, 0x3f0957233e5f456dU, 0xbda3448f3dbeccd2U,
  0x3d8ea17abb42aa38U, 0xbddae2a6bde408d7U, 0x3a00acf7bde1c18dU, 0x3d888c923d1056ebU,
  0x3e0a186c3c443b97U, 0x3d8e82afbcbabddaU, 0xbde0fe9b3d18272cU, 0xbd8a57543bcd6676U,
  0x3df7de92bd6fcc63U, 0xbd275f78bda51632U, 0x3d29fba73d1c731dU, 0x3da892d93da7cadcU,
  0x3dfd2c6bbce4134bU, 0x3da894863df423caU, 0xbd1f71c0bd2f332bU, 0x3cf0393e3e0e5ebbU,
  0xbd36d494bd52d2abU, 0x3df35ed73e18646aU, 0xbd24b012bddce6d1U, 0xbe2ddb20be0279a6U,
  0xbeb139803ff78553U, 0xbe370d1ebe87d876U, 0xbe4e9ff6be184e37U, 0xbe0511ab3d28f5a8U,
  0x3ddb0ae9bce76008U, 0x3e4a493f3da13f5fU, 0xbd6b92fd3e812d80U, 0xbddd62a2bd63f12dU,
  0xbcb7a6f9b93e7aa1U, 0x3c9e94ffbe377b6fU, 0x3c4b9df4be1015c9U, 0xbb05375c3c03ce2cU,
  0xbcba2deebd7fe9f7U, 0xbe12bf88bea5af0cU, 0xbda86acabd3e7a21U, 0x3da39084bded7ddcU,
  0xbb9bcfa1be0c9118U, 0xbe00cd66bde4d2f3U, 0x3e0c3f6ebdf39dcbU, 0x3e0907b73da40e10U,
  0x3ebde1033e5c0f82U, 0x3e771e713e3d20b7U, 0x3ded00083d65c5daU, 0x3e4058073ddc8eabU,
  0xbd7edcc23e45f4c5U, 0xbde39e04bddf94fbU, 0xbe8dc6a2be48a21fU, 0xbea68fd2bedf5fecU,
  0xbe80540cbeeb47b1U, 0xbe317711be4a55cfU, 0x3cc9e74dbe126f5cU, 0xbdb461bbbd1bc15aU,
  0xbb66dfcbbdf34292U, 0x3da28d81bda5af4fU, 0x3f4c551c3e4bb785U, 0x3dd9dbc33e1b8779U,
  0xbd8cd9b93d5bb2c4U, 0x3da530843d7d8832U, 0x3cdf6f253d533c48U, 0xbdaa5c3ebd2982baU,
  0xbdf626dbbd90d38eU, 0xbe1d4b81be0a2db9U, 0x3df40e49bd525d97U, 0x3dec12093dad6d7dU,
  0xbd04ba1cbdcb2c3dU, 0x3cdd8ba2bc834447U, 0xbd54ca64bda8955bU, 0xbc4c8c103e094c15U,
  0x3e1c8d203e075924U, 0x3e090c353e08b575U, 0x3dc67aab3e1358b7U, 0xbd427464bd0a027aU,
  0xbd11b3e23e24a0bcU, 0x3dab560cbd416272U, 0xbdb272b1be3742d4U, 0xbe712a96be015561U,
  0xbe80c8003fe4e478U, 0xbe1947b6be33284eU, 0x3d11fdc63aa677c7U, 0x3db6aa563d1ed5fcU,
  0x3e44f24a3e5f9aaeU, 0x3e0db8d53dfcc62fU, 0x3dc277e63e94b5eaU, 0xbe567c19bea86955U,
  0xbeab4510be4e84e8U, 0xbe2d5170bd8faa83U, 0xbd843cf0bdfefbc7U, 0xbe943ba0be41adc6U,
  0xbeafbd69bdee6e6eU, 0xbdce9c01be447e71U, 0xbc5485e23e27cb45U, 0x3da896cc3d2a85deU,
  0x3c32e9c73e6eb70aU, 0x3db335c83dc1df83U, 0x3d4ebd373d98ad57U, 0x3e49fa2f3d959213U,
  0x3ec017423e5793b1U, 0x3e22a6053e22e30bU, 0x3e37d08c3d820a49U, 0xbabac0573c8463fbU,
  0xbda38e94bdaaccf0U, 0xbcb01c103a161001U, 0xbed09a54be3ceeeeU, 0xbf34b816beda1843U,
  0x3dab13cabfc2d2a1U, 0x3ced1362bc537160U, 0x3e2d52ae3e60b855U, 0x3d53154b3e495319U,
  0x3e7126b33e36e3d1U, 0x3e2ad06d3ea2b6f4U, 0x3ed62a7f3e47afb1U, 0xbd48de49bdb3f074U,
  0x3d55c6d6be26ab61U, 0xbd64de7bbe0ea209U, 0x3d96d897bc37690eU, 0x3e0869c9bd9af80bU,
  0x3d6e9be5bdab6195U, 0x3b998c71be3f3e0dU, 0xbd3f1a5a3d2a039eU, 0x3c7668ad3cd2bd0cU,
  0xbd0199dd3dcbeff1U, 0xbce7ad3b3d9fc1bfU, 0x3d4adcfcbd1bfd82U, 0xbc82e097bd92ff20U,
  0x3e0971603c0da7a7U, 0x3ddce6e53db745bdU, 0xbd4b6ecb3d96002fU, 0x3d6526a23e0ce3cbU,
  0xbbd9dbe3bc29240fU, 0x3e08c3eebc9fb9a9U, 0xbe82811bbccbce20U, 0xbd5e1c40bdd28cecU,
  0xbe5e08e9400eb092U, 0xbde21bb7be82e9c7U, 0x3d531f263c1d3f16U, 0x3dac9feb3da345d1U,
  0x3ea6b6113ea24d70U, 0x3ebe38573e40266dU, 0x3f08243c3ec68bc6U, 0xbdc101213c5657dbU,
  0xbd78ca1abcfadd57U, 0xbc11a258be04cc23U, 0xbe862632be6fa288U, 0xbdf9a6e7be881c04U,
  0xbec6db16beac51aaU, 0xbeb56da1beb70877U, 0xbad3826fbe58992fU, 0x3d3bcef6be2009dcU,
  0xbdbaed6d3deaacb5U, 0x3da361fd3da2aabfU, 0x3e66f1033e5cb1ffU, 0x3ea8976f3e988f96U,
  0x3f115ec83e935634U, 0x3ec031753eae7fdaU, 0x3e9087553ea58085U, 0x3e61ed103e84839eU,
  0xbdb9dc8a3dac57b5U, 0xbe8468fdbe133197U, 0xbf2016eebef904b4U, 0xbf98b393bf3d860cU,
  0xbe7e1977bde001caU, 0xbe0ebd34bde03971U, 0x3da4929b3d50836aU, 0xbd1e67673df69318U,
  0x3e52cbef3dbe2c83U, 0x3e83fa293dc02048U, 0x3e35dace3e0bd3d5U, 0xbdd1c7003d00a7dfU,
  0xbd355de9bbb38a2aU, 0x3d51dd0b3da0113fU, 0xbc81e3b73d7d1a6dU, 0x3e1067053d2a470eU,
  0xbdc1e89fbdf9f98fU, 0x3d8bb6fb3db7b616U, 0xbb0b2e8dbd9f298bU, 0x3dc387053d61534eU,
  0x3e12884f3d02e11dU, 0xbcd7b6ac3bc7eb98U, 0xbd7d4acebdbd1136U, 0xbc6413423d77a4a7U,
  0x3d1ab1bc3dd2f355U, 0x3e10dc4d3e8a16f7U, 0x3e1bf2dcbcbcf891U, 0x3d4696223e06440dU,
  0xbdfe351d3ce1036cU, 0xbdac537f3d88d16bU, 0xbe8a4463be07dbd7U, 0xbf1bf5eabe9acd85U,
  0xbe8aab3a3da31774U, 0x3ce7bc6cbd51de25U, 0x3c7997d6be2099a7U, 0xbc111b5dbdf7a6a0U,
  0x3e4bd2603da9f8bcU, 0x3da43df03da14956U, 0x3eb14cec3e3bfa08U, 0x3d22f576bc3eb99eU,
  0xbd49ab21be070ce2U, 0x3bce6b93bd8166e6U, 0x3e135583bde49847U, 0x3e0972063ca3f7dcU,
  0xbd853faabdb7eb0eU, 0x3e021b6c3cafc738U, 0xbc043bd1bce50fbeU, 0x3c2bd505bdb1f2d4U,
  0xbdbf1a05bbaf32b3U, 0x3dd615f5bcc9b298U, 0x3d146643bc53a6d2U, 0x3d4e9038bda2e4deU,
  0x3d9a4b023c0fc337U, 0x3cdf04643df7db2eU, 0x3df5048abcfa4b4fU, 0x3db1181e3de9522aU,
  0x3e30cf2b3c0cf909U, 0xbdd300993d109157U, 0xbd4db642bd97c89bU, 0xbf0c037ebe853e62U,
  0xbe19e15bbf4496d0U, 0xbd179a7f3becd791U, 0x3dd80786be16fe26U, 0x3c6657ab3e00139eU,
  0x3d17efc33e134f51U, 0x3dcc111e3e281c50U, 0x3eadfca63dc6bbcfU, 0x3d1f7a943b101f28U,
  0xbddca3b93d6750e6U, 0x3cea6ad03b96335eU, 0xbc88f11cbcbb005cU, 0xbcfb2db4bd624e68U,
  0xbda6eae73d56d643U, 0x3e3b18733dabae09U, 0xbd8fdced3df35bc5U, 0x3d377718bc03fe71U,
  0xbd7aeafa3cd99af4U, 0x3cc060f5bd901c13U, 0x3cb8df5abd6d5e4aU, 0x3d5b7aefbc7745e5U,
  0x3dab17533dfff02cU, 0xbd1519613e25fa11U, 0xbdf42e1f3d9de032U, 0x3de4c94f3ddb8d3fU,
  0x3c2851d43e1261f1U, 0x3d8ccddf3df8e222U, 0xbcd1f214bdf3b255U, 0xbe65e32abe2f2528U,
  0xbe6a10b93e22f01bU, 0xbdbeeaa8bde9fe5bU, 0x3c41aed9bd74334aU, 0x3e9075153e55d939U,
  0x3de716f43e66c542U, 0x3e646d253e4888e6U, 0x3dd18e223ed7e1afU, 0x3d4e6f2d3e1ab853U,
  0xbd80cbdbbd823efcU, 0x3d9bd490bd6a31d4U, 0xbd80b449bdf428c5U, 0x3df04a19bb5d28e3U,
  0xbd8ce58ebe220e3eU, 0x3d77f7d73cba5f63U, 0x3da0e896bdc3f94dU, 0x3ccf08923cddc9ecU,
  0xba4bf1973d8daa99U, 0x3de4fd38bdcec13dU, 0xbc2818d13d747826U, 0x3dde7a2f3e22d5afU,
  0x3d94460e3e4b168aU, 0x3e6a81b83e13f960U, 0xbb8e61883e4c9644U, 0xbd1002633e1bad6cU,
  0xbd877581bdabde43U, 0xbcf173cabe03c6daU, 0xbea4cbe1bde7b5c5U, 0xbf11ba06bee46c35U,
  0xbe01d12bbe8cd9b8U, 0xbddc1c93bdd12af6U, 0x3d6f4685bdc42e44U, 0x3d5b3b2ebd8f82acU,
  0x3cde39903e19f641U, 0x3bea76023e28fc67U, 0x3e298e3e3dd1d831U, 0x3db9aa5fbe1b2f02U,
  0xbd51c6983c71e00cU, 0x3dd005da3d7f7697U, 0x3e21086dbce0a05dU, 0x3b97462b3c2cd080U,
  0x3dccf1573dfa6388U, 0x3d8da72abe0e7b33U, 0x3dd71852be1bb4beU, 0xbd68719bbcf6097cU,
  0xb95885ed3cdaea1dU, 0xbd11a5b33c2fe49bU, 0x3d2084bebc179b45U, 0xbcd5fecb3d3f1898U,
  0x3e5e0be63db393e6U, 0x3e2a56473e581767U, 0x3c655034bd56106bU, 0xbcdf63f4bd81d78dU,
  0x3d847e553d0ff3cbU, 0xbd840a613e29098fU, 0xbc9f402fbe05e4d9U, 0xbe777fcebdee640fU,
  0xbc1925cebee2555cU, 0xbc473c0fbe065217U, 0x3db841c53d5480f8U, 0x3e033cc73c69c36fU,
  0xbc2bea0c3e002e8bU, 0x3dc71e0a3e0b90b6U, 0x3e64b1293c864bb2U, 0xbe16e2e93e2c5821U,
  0x3d44ad01be1260f3U, 0x3d3a0bc33d9221bcU, 0xbd32ab08bdd160e3U, 0xbd2ad8f63b004a50U,
  0x3e0c84603cee3a1cU, 0x3cccb0c33cf0a5cbU, 0x3d1715ac3d6fcda5U, 0x3dae0b4d3d4039f8U,
  0xbde46c843de2b86aU, 0xbe2508cfbd3a9adaU, 0x3d8baedbbd52da4eU, 0xbd23b1d4bc1d55ebU,
  0x3d7ffa35bca4604aU, 0x3c11d8543e470ce7U, 0x3d6496553d7461e6U, 0x3d82a8e83d710e86U,
  0x3de11828bdb0328aU, 0x3cefb0023d835b87U, 0xbe806dfebc1c1de0U, 0xbe98331cbe9fcc62U,
  0xb7efd21dbf6be879U, 0xbdbdc17d3d214996U, 0x3de69dc4bd31de02U, 0x3e1dc2983ce19a3fU,
  0x3d17b769bd8d7cb5U, 0x3e226c5e3e2ade71U, 0x3ed820d43e3c8e89U, 0xbda79afc3dbef856U,
  0xbdd18505bcf455a0U, 0x3c9c3d6cbddb8c1aU, 0x3ce95d433dab9633U, 0x3e0e0c1a3d616cbaU,
  0xbdebcd58bd611bbfU, 0xbd2c53ebbdaaf7f3U, 0x3dd8c97cbd4b0e01U, 0xbe0c713cbdedf471U,
  0x3d9b48773dd9bf9fU, 0xbcf0841abdf94785U, 0xbd4435f93db5d797U, 0x3deb69c4bd116983U,
  0x3e1a529dbd0f83d2U, 0x3dcc9f313e9b4351U, 0xbe0bd5b0bb9bea61U, 0xbbaa1a56bcbbb1acU,
  0x3c17e5153df5d08eU, 0x3dd3ee4a3ce9ad0bU, 0xbe20b219bccef477U, 0xbe85c772bd87be4bU,
  0xbd3c2d5fbf19af18U, 0x3c37f6013be31fe7U, 0xbd824e593d2515fcU, 0x3d6b1e3f3d658458U,
  0x3ca4685a3df278e8U, 0x3d32a0193c190d9eU, 0x3edcb1403e97bd9dU, 0x3c77b0083b21a3b8U,
  0xbd99bbe73cba8d94U, 0x3d5463e3bda9805aU, 0x3da895e6be110f10U, 0x3c4aa98b3dfe0bd9U,
  0x3c12149e3d07954bU, 0x3c5697adbdbf1b55U, 0xbd69ae6ebdc9e2f0U, 0x3ceb9f82bd5a6254U,
  0x3d8b38ea3d558cbdU, 0xbc76369dbcfb971fU, 0xbd7a52273c0e5d6cU, 0x3cd8a4573debb1e3U,
  0x3d24ea373cb6860fU, 0x3e510db13e63ae66U, 0x3ce3f944be2c0698U, 0x3d6a88333ddfa8f3U,
  0x3cf696db3ded7ae4U, 0xbd85784ebc861c23U, 0xbdad15e4be179898U, 0xbe85118cbdb8a78aU,
  0xbe161a6540803750U, 0x3e7e33943e030582U, 0x3ea823953eae8121U, 0x3ef3e1bb3e892ddeU,
  0x3ef368323f213ab0U, 0x3f36cc6d3f26679fU, 0x3f927ccb3f5cb728U, 0xbebf4fcbbe80cfdcU,
  0xbec0d58cbec76fbeU, 0xbedafcf8bf0cedf6U, 0xbf400dcdbeef8699U, 0xbf2cf189bf1ca6c3U,
  0xbf7ed104bf7cf778U, 0xbf1b5cd1bf892950U, 0x3eba657e3e86f154U, 0x3e7163443e92b099U,
  0x3ee6cb993eccfdceU, 0x3edf1c383ed33c09U, 0x3f1325533ef69815U, 0x3f6d4e923f331454U,
  0x3f9524b03f81fed6U, 0x3ec82a4d3e7afd58U, 0x3e912a0b3e9c78e4U, 0xbcdd02593e7d7c62U,
  0xbe043c893cf2ff60U, 0xbf0f3cefbe900aa6U, 0xbf9c1ddfbf3e0a50U, 0xbff838f4bfb354b8U,
  0x3cf46c54bf1e3c77U, 0xbdc44d303c866822U, 0x3c2fbe513e1abcf1U, 0x3d62cb143cc66e6fU,
  0x3d8370b93d37e30cU, 0x3db9af693dd6c72cU, 0x3ea77f683e50b1c6U, 0xbcf3d8f03cb4241dU,
  0xbd43f76c3d96cab5U, 0xbda4a66dbdd351c3U, 0xbdf2a507bd927033U, 0x3d531e343d1820c6U,
  0x3d16ba063daf61b5U, 0x3d885eefbdaf43a8U, 0x3d9b72a1bd2d93aaU, 0xbd13a747bc31d4e2U,
  0x3c7a841f3d58ab2cU, 0xbda583debd3deb2dU, 0xbd90d5d7bddad7a7U, 0xbdec57bc3dcdc6e9U,
  0x3de247933e33bb73U, 0x3e117bc13d739f5eU, 0x3c69c37e3e007c1aU, 0xbc57b69cbb8e5c9dU,
  0x3e37b821bd0d7c3eU, 0x3dbafe64bd0e068bU, 0xbe5962d8bdef5387U, 0xbeaf08babd7e8cffU,
  0xbe2e89bebf04f677U, 0xbd092b10bdedff45U, 0x3e114a403da2d29aU, 0xbc35edb63cc4a3fdU,
  0xbca894693e5b080aU, 0x3b7c58f23e12223eU, 0x3ebbb80d3dd0669fU, 0x3cd04cdb3dc7b636U,
  0x3d316010be24cb5aU, 0x3dc9c33bbdeddf19U, 0x3c045e24bd8e9f66U, 0x3e20b8873d64dec4U,
  0xbdb38cc03d7215c9U, 0x3cee83ab3da649cdU, 0x3d975d733da72cecU, 0xbdb07fa83d0105e5U,
  0x3da9b624bdd1f0daU, 0xbdf0881f3d42d0d2U, 0xbd3cb9333c5a7cd3U, 0x3da5079c39a1b678U,
  0x3ddffde33caa735dU, 0x3e2c9a103e57e0ecU, 0xbdfc75aabd1de8b3U, 0x3dad75d13dfa69e5U,
  0xbdd6370d3daa3ff4U, 0xbd8358d13ddbcfd6U, 0xbdd5bb0d3cc268fdU, 0xbe920b43bdf02f23U,
  0xbd29ad0a3bc40e33U, 0xb99729c3bd009fd1U, 0xbe0733aabe155a8aU, 0x3de87ff53d9b4329U,
  0xbba4c501bd75039dU, 0x3d9c05f1bc221fdaU, 0x3d63ae3c3e27231cU, 0xbdd4e3a13dbecdabU,
  0xbdb1f1b03cbca6d4U, 0x3cb9af1b3c917601U, 0xbd089a143c84162eU, 0x3dc6cd15bc8d6370U,
  0xbe17a5b73d4bee28U, 0x3ddaf85dbe0df693U, 0x3b5dea823dce845bU, 0xbd8ae5e0bc910e56U,
  0x3d0990523d1a0ef9U, 0xbdb99c0e3dfa3902U, 0xbcbb6c60bdd33556U, 0xbd5f8a85bbbb5871U,
  0x3df7f051bd85ed00U, 0xbbcd483e3e8bfc3aU, 0xba0a77f53db93e9eU, 0x3d8fd9933cf58c43U,
  0xbd852b113d78a031U, 0xbcb08f09bdb6fa74U, 0xbcf41b2c3c4917d8U, 0xbeb29f61be66cdd4U,
  0xbee839903f9f77b9U, 0xbe4e42c4bdc36ac1U, 0x3d077f65be045e7fU, 0x3e12d95abc2cd0d7U,
  0x3e8dbcb63d6d932cU, 0x3eaa75aa3ea2ae4eU, 0x3f07c1083ec8934bU, 0xbe04140c3c5b9a89U,
  0x3cfc540ebde1d702U, 0x3c55709d3c8f9279U, 0xbe5d4258be06b577U, 0xbdaac47dbd9dfa72U,
  0xbea5a8c0be9e8ae9U, 0xbe289f8dbed17889U, 0xbc81dfc8bde36700U, 0x3db8c7f9bd2e0d26U,
  0xbd8bdfce3d2f3e80U, 0x3e30e4143d9a112aU, 0x3e3a1a073b5afc78U, 0x3e307b1b3ea40395U,
  0x3eeca0683ee45ceaU, 0x3ecf60cd3e4d4a52U, 0x3db815503e8e7c94U, 0x3d5f7c313d71fb4aU,
  0xbdcbbe733c636e6fU, 0xbe320a1cbdc160cdU, 0xbee41815be79423eU, 0xbf7897cdbf2ea933U,
  0xbd5830eb3f2eb2faU, 0xbd90b86abde2f8b9U, 0xbdf0eb28be226797U, 0x3dfca7f1bd647eaaU,
  0x3dece0803e15afecU, 0x3d4cac523d9706bbU, 0x3d6dd8003e79af64U, 0xbe6571b2bd97b512U,
  0xbe19554f3cba015bU, 0xbcb7e44fbda0f671U, 0xbe0b5d90bd8523e8U, 0x3cb522b7bdd1f926U,
  0xbc825411bdb67e78U, 0x39c72ecb3daead0fU, 0x3d5afe743e23923eU, 0x3de4826b3d2765d5U,
  0x3e1f09263dfac85bU, 0xbc6722943e3fd327U, 0xbcb7b8c23d35e0c7U, 0x3be41bbabd0d9267U,
  0x3da866d53e28a6d8U, 0x3e42f9533e7adc39U, 0xbdb6d89a3d4b4c8aU, 0xbda7f89dbdf2d319U,
  0xbd46e977bdcdbab7U, 0xbb58db3c3d1d49eaU, 0xbe06807dbd8e41d1U, 0xbf0bb0cabeab7688U,
  0x3f1b3b90403fedccU, 0x3edb02b63ec287f6U, 0x3e65ae533e4b4ad7U, 0x3a8976863d51892eU,
  0xbd3de30abd8605baU, 0xbe0501b8bea6403cU, 0x3f93bd7bbe2ff818U, 0xbf100c40bf40da87U,
  0xbf40bd1fbf300882U, 0xbf4adb1cbf29c9b0U, 0xbf2f76b8bf586c74U, 0xbf686448bf40fa36U,
  0xbf53b3febf70145aU, 0xbed69f8fbf4df3b2U, 0x3d8b2e823d2dfde1U, 0x3e7cfd723e2ad3d2U,
  0x3ea4acdb3e9bb0e5U, 0x3e1fd0093e6bded1U, 0x3e431e473e1cbde2U, 0x3e6f07a23e9be693U,
  0x3ec074133e33c8deU, 0x3ecd3cb33efeee64U, 0x3e62b1683e8f14c0U, 0x3e7c2cf03ea100aaU,
  0x3ecd04af3e429184U, 0x3e8bab443e64d9e0U, 0x3e87c6003eb5f2c7U, 0xbf030a4d3dc6afceU,
  0xbe41724abf5aa345U, 0x3d6a435bbcb00c96U, 0xbd247a0cbc874427U, 0x3e1e53ccbd554008U,
  0x3dccd8993c2fe2c2U, 0x3d057db83e682464U, 0x3e9264423ea9829dU, 0x3e02e61abc543007U,
  0xbd29fa0c3dbd431fU, 0x3dec883bbdb9c4f3U, 0x3da60e533b5a551fU, 0xbcdbbb67bcc9423bU,
  0xbda86c70bd56d2b0U, 0xbd2599dabe09dc47U, 0xbcf313803d48074dU, 0xbcf9f4383b9923faU,
  0xbd5a4273bdba2dfaU, 0x3de87a933d1c401cU, 0x3df2cd26bdf9374fU, 0xbd05169f3de58aa0U,
  0x39a17e033d646db7U, 0x3e32b3db3e1d939cU, 0x3d9b0cf4bafe7e72U, 0x3d94b8ab3d42cdeeU,
  0x3da51cff3dc969aaU, 0xbe0409313daf3fd5U, 0xbd55b908be3c02e1U, 0xbf01106dbe31c884U,
  0xbe6904233d5a75ecU, 0xbe4e78b1bdab674fU, 0x3bf91ee8be458aeeU, 0x3dacc4793dcc0685U,
  0x3e6d00f63ce7bab5U, 0x3de872283d4c674bU, 0x3ed9f7fe3e82cdb4U, 0xbd28220b3d926422U,
  0x3ddba90e3d97d391U, 0xbcf6265dbd8033abU, 0x3deed1e13e19f49cU, 0xbda757833de23b1fU,
  0x3c587fdc3de70770U, 0xbd985d99be2bab31U, 0x3dc2397fbda5a7dbU, 0xbb9bdaacbe0cee4aU,
  0x3df67a933da88bf6U, 0x3c151af3bd8caa00U, 0xbb8bb49ebdb7a401U, 0x3e54dc253e1bce7cU,
  0x3d42fecc3d2fa3a1U, 0x3e6952023e5c40feU, 0xbc07a80b3a207897U, 0x3c5a66773df1b5acU,
  0x3d2ee2963d76054eU, 0xbe41ceb93deb0a89U, 0xbe76ac4ebd8494f5U, 0xbf31c06fbed9a809U,
  0x3da71c6cbf7108a2U, 0xbd738da5bca15fdbU, 0x3d044804bda4207cU, 0x3d3318a0bd4eca6cU,
  0x3e57905c3d86dcadU, 0x3d746db83e1b954fU, 0x3f16878e3dc1edb9U, 0xbd867b533e6987a4U,
  0xbd8d3a8c3dd265bcU, 0xbd6245a63d1578ffU, 0x3b67a879bd18c179U, 0x3e161aa13cfd3c74U,
  0xbd0a6599bdbceb38U, 0x3e276ece3c9710f6U, 0xbcaf5159bd91e181U, 0x3dc927a03de7ca77U,
  0x3dae3b043d1fde51U, 0x3cd704bcbd910dc3U, 0x3cc5f081bdc765d5U, 0xbd380a223dc11320U,
  0x3dc91954bd8ca348U, 0x3d8033663e724a38U, 0x3d951b6a3dbc40dfU, 0x3d5b3417bc7fbf53U,
  0x3d8594513e1f5650U, 0xbd696aa93d08fe2aU, 0xbe0eafe23b496a59U, 0xbefa9db2be953762U,
  0xbdf87e13bf4cf4efU, 0x3d1f34d4bd940702U, 0x3e38de143db6902bU, 0x3dfd995d3c8f0281U,
  0x3e0586bc3d11d553U, 0x3d41b16b3d5b003aU, 0x3e9621193e1bd980U, 0xbc906943bd16de2aU,
  0x3d890d39bc9a62a8U, 0xbb898c143dbe075bU, 0x3b37344cbdec1178U, 0x3dcbcd623d1b13baU,
  0x3d994f523da8658fU, 0xbd761269bde7bb4cU, 0x3d955fff3d4e9061U, 0xbd5b7f383e0d20adU,
  0x3ca34b60bd902c32U, 0xbde1a2c23db9f203U, 0xbd84b3babd4d598fU, 0x3d9a7dfb3d9c033bU,
  0x3d7229bcbd458e0cU, 0x3dce8e523df938e8U, 0xbd70f5683dd20d95U, 0xbb8f2accbda763a7U,
  0x3de1ab033d87f3d7U, 0xbd996e793e37e0cbU, 0xbc6dc405bd8f313dU, 0xbeb71cbfbdc5034dU,
  0xbee02401400d2a2cU, 0xbd63886fbe269153U, 0xbb19dc18be67d794U, 0x3e2216b4bda7e96fU,
  0x3e804b603c0fdab4U, 0x3eb44c663eaa9809U, 0x3f29e4603e8e08bfU, 0x3be54f983d373289U,
  0x3ac57c21be196e8fU, 0xba11f4f1bd5ab9a7U, 0xbe03ccb5bdf03b43U, 0xbea0a36cbe86860cU,
  0xbe865370be9d425aU, 0xbecff375bf0b735dU, 0xbe2b6b78be057c72U, 0xbd83f1f2bd803cd8U,
  0x3e275a823e0643cbU, 0x3d45b8bcbc35d65bU, 0x3df4165d3e1919f7U, 0x3edc40793e2840e8U,
  0x3f2e1de73f0228d6U, 0x3ec0754f3d879057U, 0x3eb64dad3e37240aU, 0x3e80ab223dda71ccU,
  0x3da708673a71b9a3U, 0xbe827cd7bd631b2fU, 0xbf30e035bec1f4e2U, 0xbf5d176fbf51077bU,
  0xbe8816973eadfb47U, 0x3cea7cdbbdb896ddU, 0x3c18845c3d8dbad8U, 0xbc4b3c483e04a598U,
  0xbd7191173cd9fb5aU, 0x3e475be23d9e408cU, 0xbe1efa513d8fe115U, 0xbd986d2c3af7d702U,
  0xbe26f20f3bfe9095U, 0xbd03afcbbd225871U, 0xbdbae57f3cdf1887U, 0xbc5e8dab3de6183aU,
  0x3db77b5a3e071f09U, 0xbdda4f363caa42e1U, 0xbc9997593c260f98U, 0x3e1adbec3d2f440cU,
  0x3d8f0ff0bd5899b9U, 0xbdaac2773e00c8a0U, 0x3db98750bd5ca070U, 0xbdca9ad9bdcd8ff7U,
  0x3de283e13e0fdddaU, 0x3e700af73d627638U, 0xbc99dedfbd8942f5U, 0x3d8c2bdcbd10ac49U,
  0xbd57fb4f3d4951f9U, 0x3d8d2f4d3c995485U, 0xbdb16e283cda5772U, 0xbe989173beb92be5U,
  0xbdcfce95bf3eb85dU, 0xbbc2cd4f3df322e8U, 0x3df2e82e3cbed2e6U, 0xbd58cef03d03424bU,
  0x3d1f37df3d24a645U, 0x3da304183c8d5fd5U, 0x3f0589b43e5ff357U, 0xbc2548e53d14d681U,
  0x3d88eda8bc12647bU, 0x3d633a2fbdbf0659U, 0xbd622787bc250194U, 0x3c3f2df6bb41af8bU,
  0x3d705d40bdadedefU, 0x3e398c8f3deb16adU, 0x3db219c53dec11b4U, 0xbd0dca43bd53622aU,
  0x3d26def33cdc278aU, 0x3d22c117bdcfa449U, 0x3c97dc98bdac0e48U, 0x3e1e5425bdc23856U,
  0xbd7ccbc33dc326efU, 0x3ce894d13eb11733U, 0x3d2237c73ca2c313U, 0xbd5931133d29f295U,
  0x3d4bb313bdad06d4U, 0xbd0062af3ddc1ceaU, 0xbd20a8debda98506U, 0xbeab2cafbdd3d061U,
  0xbdc5d8a43d5c4a25U, 0xbdd03054bdd2d41aU, 0xbd9905323cdf5180U, 0x3dce9938bddfeb32U,
  0xbb7dda2d3e396f64U, 0x3e71e92c3e4c7969U, 0xbde9f5ad3e1b038aU, 0xbdf125a9bd93aac8U,
  0xbb00d71abdd836eaU, 0xbd6b4eb2bdf7c37cU, 0xbd4341463e22359cU, 0xbc9426fb3e4db35aU,
  0xbd89bbe23db94384U, 0x3da08ce3bdccdf41U, 0x3c2dcb533d36674eU, 0x3dd3083abd1b7022U,
  0xbe0b97583d21b386U, 0x3d808c0a3d84daf0U, 0x3c8205023d11e881U, 0x3d8e3fc9bdf554caU,
  0x3d631c263da47430U, 0xbbc7c26c3e4d5a7cU, 0x3e097a193df38a60U, 0x3c6ce16a3d40c660U,
  0x3d495aa7bd07cb33U, 0xbd6125443dd74963U, 0xbe927b43be032bf7U, 0xbecd5294be8669ddU,
  0xbd7a85ae3e32432fU, 0xbe087080bdc696a1U, 0xbbe26498bdd91414U, 0x3ccfecc7bccac21aU,
  0x3e19e4ad3da6e585U, 0xbc9a07093e473797U, 0x3e0acdb73d841083U, 0xbdc083e7bdbb74cfU,
  0xbe455a05bd54070dU, 0xbdb162f63d1bdad2U, 0xbda8cfd5bdf943dbU, 0xbda7c79e3bad25abU,
  0xbda8ca603e061eaeU, 0x3d88a1133b92bf0cU, 0xbd5fe74d3b25975cU, 0x3e05fd283d47c7beU,
  0x3ded6e453d5a6631U, 0x3d9456d339f23d42U, 0x3ce71a4d3d663899U, 0xbdc496a5bd6b601eU,
  0xbd5a45113cf90a3aU, 0xbd0456893de1c812U, 0x3d51963ebd0123f1U, 0xbd087ee7bdf12765U,
  0xbc9c38ad3d438641U, 0x3d882b053cfdf86eU, 0xbda97cf6bd95eecfU, 0xbecfde74be96bd5bU,
  0xbf469e7abfb02b7dU, 0xbf634cc6bf651c2dU, 0xbf3ba468bf3ad821U, 0xbf1e5321bf23c201U,
  0xbf1d1870bf22ecccU, 0xbf244f50bf0e8a13U, 0xbfc3439ebf6ece72U, 0xbd963f433e42ee0eU,
  0xbd49e73bbdc4cfbeU, 0xbc378fff3d66961dU, 0xbdf53d20be38576fU, 0xbe1aa45fbdb2d566U,
  0xbe059fbbbe623960U, 0xbe0df7ddbe050da9U, 0x3e4171bd3d8f3cf7U, 0x3e3932a73e56ef68U,
  0x3e1e03e43e0641b4U, 0xbb8bccd83d9eb1abU, 0x3e84669f3e6b0f71U, 0x3deb0ce53dc82a2fU,
  0x3e79b6633eb5885eU, 0x3e50269f3dc1d77bU, 0x3de7ea6f3da333eaU, 0x3d9552193e60315fU,
  0x3b8157203e5c71bdU, 0x3deedf78bc58c1cdU, 0xbe4c68cfbe00b80fU, 0xbe40dd04bd8b9ec9U,
  0x3d352c37bf509106U, 0x3ce98be2bd9b54bcU, 0x3d12e79e3d8cc63fU, 0xbc80d1f53e5ab0b3U,
  0x3d61eb29bc0a8eccU, 0x3e17bb5f3dd760beU, 0x3f3cd4ad3e24bcc3U, 0x3d7281153da7295dU,
  0xbc2b0db6bdb7b590U, 0xbd895e4c3d55a59eU, 0x3d2b12243cab137cU, 0xbdb21de43dc1b2e4U,
  0xbe167b233c9f8464U, 0x3d62e55fbe5bde9fU, 0xbd4ace11bc8b5adbU, 0x3d22615fbd438c62U,
  0x3ce8d348bd9d19d3U, 0x3d3a4ee13c22eab9U, 0xbc0244ce3d9db39dU, 0x3a7329a83d88344dU,
  0x3e060c083d821a71U, 0x3d42f3a53cbe8143U, 0x3d687d863dcc56e8U, 0x3e036b29bae24b83U,
  0xbd9ee2983e30ba24U, 0xbe0984913e1052cdU, 0xbd96318a3d44acfcU, 0xbe399484be704beaU,
  0xbe5e347b3dd75139U, 0xbd9ecb4bbe1e43adU, 0xbe212940bcfc6e5dU, 0x3c4de071bdf9073dU,
  0x3e465e11bd005fafU, 0x3d7b254b3e68c728U, 0xbe05c9fe3d8f225cU, 0xbdd102713d565f66U,
  0x3c3cc547bb606644U, 0x3da5e28a3c4a28aeU, 0x3d8d06223dfeb91bU, 0x3d9a8527bc888cdfU,
  0xbdf911c6bd1af8c6U, 0x3cd70798bdd0ff4fU, 0xbd0e0e09be01eb2dU, 0x3e0df1e3bc637991U,
  0xbdafe0ce3dad73edU, 0x3ded42b7bccbde3cU, 0xbd7cec7abdd3e4c7U, 0x3cdf58133d2aa44bU,
  0x3ddf2cfbbd220e19U, 0x3e2dd041bc80484fU, 0x3e4c425cbcc5b1ebU, 0x3e1b1d1cbd69b72aU,
  0x3e218e30bd6e69d7U, 0xbd8e4d10bdeed1beU, 0xbdfdc21dbcb975b7U, 0xbecdd83bbe45537fU,
  0xbe2d81ce4005946bU, 0x3d97172cbb38cba0U, 0x3e2e17f53da30311U, 0x3deacc3c3e26f15eU,
  0x3e3452443d8f5f16U, 0x3e581daf3e7a04f7U, 0x3e334b6d3ea95f47U, 0xbe4160f8be3d33dbU,
  0xbe1c5886be50a0efU, 0xbe7fd94ebec18652U, 0xbec3d9a9be317298U, 0xbe81d481be97ee3eU,
  0xbefdfb6fbea01ec2U, 0xbe53ec65beb2ba70U, 0x3e445cd93e576563U, 0x3e8a532f3d5645e0U,
  0x3e4999513db0a881U, 0x3dd63f393e91f81bU, 0x3eb629623e46ad25U, 0x3e7be98b3e418da1U,
  0x3efef76c3e87c2c3U, 0x3e16b54b3e98d7daU, 0x3e132e49bd3a66f6U, 0xbd3f141a3df6ac66U,
  0xbd8ac906bdf72c06U, 0xbe6dbaa8be204397U, 0xbf16c2b5be834373U, 0xbf760ff1bf23de90U,
  0xbe5dc8b0bf3b9619U, 0xbdb5b2093db880c2U, 0x3dc15f973df0e6b9U, 0x3d41291abd1858a0U,
  0x3d89c36a3e05cc4bU, 0x3e7d75403d9cc455U, 0x3eae837c3e2eb164U, 0xbd747b2fbdf1791bU,
  0xbe2563ed3d327077U, 0x3c43e9ec3db481f7U, 0x3e0689353dd10288U, 0xbbc487593d9725e8U,
  0xbe160e7c3dce83eeU, 0x3dc845c6be59ab4dU, 0xbd63e8b03d949610U, 0x3b4c115bbda3b924U,
  0xbdcf013bbd70e772U, 0x3dc6182b3d008c46U, 0xbd6fd7d0bded599dU, 0x3d77a90a3df6a5d4U,
  0x3e2716613d1694acU, 0x3e6cd59d3e779668U, 0x3d281fc03ce845c7U, 0x3dceb946bdde0faaU,
  0x3d59e9d0bdb5068eU, 0xbd34e75d3dfee801U, 0xbe325b1bbd347a5aU, 0xbe752134be68dd77U,
  0xbebe3dd53e7fc821U, 0xbd9e99d6bdb01089U, 0xbe29fbfbbe4dfbc2U, 0xbdb16dc7bc8190dbU,
  0x3e2e64963d918f9cU, 0x3e61b03e3dc56706U, 0x3e293dcc3e48917dU, 0xbb8fe92f3ccfb99eU,
  0x3dfd14143d2e85bfU, 0x3e0661a7bb78f67cU, 0x3de8c1d73e273bf3U, 0x3d4284243b70551cU,
  0xbe26c57fbc10cbefU, 0xbddff7c1be166115U, 0xbe03b4153d18f1f0U, 0x3da103d9bddc68c0U,
  0xbccc9c7fbdb31c46U, 0x3d127d703c78d0dbU, 0x3dc08045bdab22b0U, 0x3e106e5c3dae98abU,
  0x3e03169f3db4b93cU, 0x3e91755b3dbfe3cdU, 0x3d9b0a473e549659U, 0x3d3253f53e0a5cbdU,
  0x3e0410febb9f58faU, 0xbd40ffd23e0fa675U, 0xbe995fa0be053941U, 0xbf0a8ac7beb60359U,
  0x3ca422febf3b7209U, 0x3db43a833d739d48U, 0xbd48cf73bd90e772U, 0x3c810878bdbbcf0fU,
  0x3dd45d6f3e11ccbeU, 0x3e2a3eb23d9e82d2U, 0x3e95ac6a3e444ea1U, 0xbd631e9e3d07496eU,
  0x3ccc1e67bd3cc2e3U, 0x3e005cea3d5d462fU, 0x3d2d9eb2bd9b8d88U, 0x3cfad9263b42c1feU,
  0x3cd907d73d9fb460U, 0x3eaeb6373d8a2072U, 0x3dff951a3e301e28U, 0x3d948af3bc9ffb68U,
  0x3d9090b43d86f294U, 0xbd82a86f3c95fc73U, 0xbcca0be2be19ca38U, 0xbdab3684bd8cfea0U,
  0xbe3339f13e07a4c9U, 0x3dea72963e8dd70fU, 0xbca37b303cc40cf1U, 0xbd2143edbe20d89eU,
  0xbd332393bc2f6123U, 0x3ddd2041bc28390bU, 0xbd98cc61bd3ffec8U, 0xbede4391be8f78afU,
  0x3dfc2d69bf1b668eU, 0x3dc264293e9d183dU, 0x3e5b83683dafc617U, 0x3e09463a3dc08616U,
  0xbbcd98c0be0906b4U, 0xbe43b0d9be6c04c9U, 0x3fc49e933d851d27U, 0x3d9a21793e937f95U,
  0x3da18ddd3e0cf25fU, 0x3c451df73dd61678U, 0xbe2067f8bdc81df2U, 0xbdd0100cbd45e628U,
  0xbeb3c260bea6dd8aU, 0xbd825a21be95c1a2U, 0x3c487c5abd47ebf2U, 0x3d8733cdbdd5a4a7U,
  0x3dbb87c9bde00a4dU, 0xbddada7c3909651bU, 0x3dbdeba8be0ca604U, 0xbd63b043bdb5bbcbU,
  0x3df487583e3ea680U, 0x3e82e1613e282973U, 0x3d70a36fbcd25e28U, 0x3d45697b3e0311a5U,
  0x3d59b5363c9f73a8U, 0xbe2597473dc05536U, 0xbd7dccf5bd71c916U, 0xbe9e7762bdf40bdeU,
  0xbd0c65bcbf473a93U, 0xbdbf452bbe0e7aa9U, 0x3d3b9843bdc837a6U, 0x3bbb9e6dbda8b888U,
  0x3e14a12f3e376857U, 0x3dd536603b84cdb7U, 0x3f1989993e685cdfU, 0x3c4f1ef93e5616baU,
  0xbca2dc143d4b912aU, 0x3dfce626bdbfb120U, 0x3b3887e03d5d8cc1U, 0xbd6ae0983dfb9209U,
  0xbd176405bd7efefdU, 0xbd1b0b56bd17d6b2U, 0xbdd5c6ebbd1302aeU, 0xbc0f30163dffa0fcU,
  0xbdd83b39bdb38159U, 0xbdda4f603e0a918bU, 0x3e098f413d63068bU, 0x3e3c896fb996e047U,
  0xbbb554d33d6f5420U, 0x3e43fed63d4a613bU, 0x3e0e5509bd7c6d9fU, 0x3e03cbf53c93915bU,
  0x3e225245bd7ce958U, 0xbd8d397a3dbb22b0U, 0xbdb37d37bc310d01U, 0xbea54d19be82d4c9U,
  0x3be875b8bf679c19U, 0x3e04eb76bc042fd4U, 0x3cd4da503ddd3a5bU, 0x3a9aeaed3d0dfcb3U,
  0x3dd2b7133cc7e42eU, 0x3dda89003d0011f9U, 0x3f067fa03e19b74dU, 0x3b89afb83c9f2623U,
  0xbb86473bbe1c001bU, 0x3cbdb16bbd807cf9U, 0xbda1f174bd08e125U, 0xbcdf8c7f3dfefe72U,
  0xbda3658f3d24b6abU, 0x3e125e063d8a60faU, 0xbbcccd64bd361332U, 0xbc8554a43dd1aa27U,
  0xbd9cce043d8211cbU, 0xbe05845d3bf03865U, 0xbe052d98bd2cfa74U, 0x3e1274f63d74d8f2U,
  0xbc5706c93e169721U, 0x3e52b4623d83aca4U, 0xbe0ad0193d9291f1U, 0x3db7bb3c3dd83b2cU,
  0xbdb437d03e217f8eU, 0x3d7ceb8b3dc321e6U, 0xbe27d81dbd300860U, 0xbeb9e8ffbe2fb7f5U,
  0xbe2c35a3bf5e8a87U, 0xbb0c80ffbe00affeU, 0x3d1fe9f7bc9ce800U, 0xbc95a6873c383115U,
  0x3e2abfcd3db94b05U, 0x3d79f9653e69dd49U, 0x3ec9666d3e32b552U, 0x3e0e4b233d0e7a3cU,
  0xbd33abb6bd9198efU, 0x3dfdb5fdbd78a4b5U, 0xbd8ada3aba8de5ecU, 0xbcd53f853da0dba9U,
  0x3d077bc73de365fdU, 0x3dec8bfbbd80aee7U, 0x3da9ba3dbc86bc4cU, 0xbd05a4623d4cc4a1U,
  0x3d5252f23de755d1U, 0x3dbf433d3da2ceb8U, 0xbd17c65dbe19278eU, 0xbc03fbb13d9287e0U,
  0x3d7a23c8be06621bU, 0x3d7d2f903e9f60ceU, 0x3cc1c67f3d83a521U, 0x3dfe09b83dbe2616U,
  0xbdc4a1ba3bbf6fc2U, 0x3dc6bef0bda5165dU, 0xbd9dbc6a3d801e0bU, 0xbee09b9fbe65e4b6U,
  0xbec929f1403f9871U, 0xbd4dfdb3be8116faU, 0xbcced51bbddb67a1U, 0x3e28d23c3c84fa84U,
  0x3eeb51103e419e55U, 0x3f067ae03eabd84aU, 0x3f7c1f113ee38b6dU, 0x3dfc4a36bc442f96U,
  0x3c9f2c93bd464281U, 0xbd48f8f7bd892c1dU, 0xbeb05283bd9e3c10U, 0xbf0497ccbebb0b64U,
  0xbf378467bedd0d2fU, 0xbef1f2a6bf65bb5bU, 0x3c9f8d78bda10aa0U, 0xbe0f12eabdff5bd3U,
  0x3e4c2173bd9aa79cU, 0x3e6e6ad43d70ad05U, 0x3ef594ae3eb97b10U, 0x3f0a930f3f03618bU,
  0x3f6c4e413f3d9e18U, 0x3f14f6d33ddaeeb3U, 0x3f06aa103f298badU, 0x3ecfe4293edd347cU,
  0xbdb90d0e3e329658U, 0xbee33b64be3a8545U, 0xbf94917abf2aa74cU, 0xbfd7bdd4bfa02590U,
  0xbba1a72bbbd7e4a6U, 0x3b52dde83d773192U, 0xbdf0ecd13d4fa700U, 0x3e11a880bd833263U,
  0xbcc9e883bcd3f891U, 0x3c5a8424bc55725fU, 0x3de28a3f3e199437U, 0x3d23197f3d143e40U,
  0x3d6e4dc5bd392a32U, 0x3c146a6fbdd8f890U, 0xbd481f8abd130c8eU, 0x3de44690bd1331d7U,
  0x3c4fb4a2bc7a7097U, 0x3dffd417bd6b17e2U, 0xbd07cd3b3ddf70d4U, 0x3d3b8432bdc82af8U,
  0xbcabfd9d3d9a9848U, 0xbe37c2223d901daaU, 0xba91d7eb3d86dcc2U, 0x3c40dbb8be26d7a6U,
  0xbd8542033e12172dU, 0x3cc18b693e60b3beU, 0x3d6f54c9bc5dc745U, 0x3dc983073d36785cU,
  0x3cba5fc8bbd80e85U, 0x3d4f6853bd8e8b68U, 0xbe11a1dcbe03bc97U, 0xbef6640cbe1158e3U,
  0xbeab2aeb3fe3ba50U, 0xbe7ba569be8c8614U, 0xbe50bb89be06fffcU, 0xbd62f74fbbab7410U,
  0x3df92c2d3e0658c8U, 0x3e92de8d3e2fabf1U, 0x3e62b5bf3e97cfbdU, 0xbe3a7a5bbe244077U,
  0xbdfd32b9bcb1e698U, 0xbd742782bd593085U, 0xbe790807bd13f58eU, 0xbe346780bdcdade6U,
  0xbe1cc684be4857e9U, 0xbe5606dbbe945f3fU, 0xbe305969bdb35982U, 0xbd8afa05bca8d66cU,
  0x3cdb00afbb3b1359U, 0xbdb32e2fbb4dbe76U, 0x3d2966c0bb9c0c65U, 0x3e2cdfd13de1a8efU,
  0x3e88e32b3d22178fU, 0x3e30a0433cec47e1U, 0x3e95a7e03ea6360fU, 0x3d6138a63e0e2fccU,
  0x3d88d44b3dc1d8ebU, 0xbd9889fd3c2b3f3dU, 0xbe84d2a2be25f903U, 0xbf0f8411bedd528aU,
  0x3e26dd98bfb02cb0U, 0x3ea911353ed07a22U, 0x3e28594a3e0fb512U, 0x3c53388939c8bbdcU,
  0xbebc33c1bda2e728U, 0xbf13a5c3bf0ad741U, 0x3f1990b3bf03c782U, 0xbd4551763e332f25U,
  0xbd34732bbd1241a4U, 0xbe1414b5be027ae9U, 0x3b67f176be30248aU, 0xbe271241bc5db19fU,
  0xbe678843be78bdddU, 0x3e11f8c2be43d65bU, 0xbc8f54673e1f8e49U, 0xbc9e6ebcbb995a43U,
  0x3e31d9a23da162f1U, 0xbdd21cde3e09eba9U, 0x3d72ca60bce1f85aU, 0xbdb8dec9bcce10b2U,
  0x3bf5ee4cbd148f34U, 0x3e6051c73ed57990U, 0xbb9092d4bcd1e7b5U, 0x3df1c8a5bdfb7c73U,
  0x3c1015213db9da1eU, 0xbe0712c93cb87111U, 0xbeb53935be39fee0U, 0xbf0065c8be8eec0aU,
  0xbde6caccbf4c34afU, 0x3d44ec493d885478U, 0x3c245a5b3cf53cceU, 0x3e4516c73d976caeU,
  0x3da0bfccbba9aab3U, 0x3e59e3453e0762b0U, 0x3ee9d2db3e8baec5U, 0xbd95e75a3e34c335U,
  0xbdd0f26ebdd768c0U, 0x3d7d8f72bd8fdd80U, 0xbceabbf5bdc0d640U, 0xbda49ab23d5f4353U,
  0xbda7c9183dd4b7a7U, 0x3cb04d733d98afeaU, 0xbcc62750bbaa8819U, 0xbd36ed61bd5b7d24U,
  0xbc8e85c0bd91ee6dU, 0x3dc90d1cbda6c683U, 0xbdd57e74bd9614b7U, 0x3dab6bed3e15e0bdU,
  0x3d0a37643dc2d655U, 0x3e7955823e381658U, 0xbd8c4731bc74b7ccU, 0xbad146bc3bae13ceU,
  0x3d6dd1ba3c4b3ffdU, 0x3de25582bb5f3e50U, 0xbe2e1e0a3b237d63U, 0xbe76ca7abe287485U,
  0xbdac0376bf3001e1U, 0xbe13cf9cbe3c39a8U, 0xbde5041a3c95e237U, 0x3df0faf53d9174c7U,
  0x3e83767a3e0c3d4cU, 0x3e967c703e929456U, 0x3e4a7bcc3e9ac715U, 0x3d27c1633e4032e5U,
  0x3da21061be2e121cU, 0x3dda07f63d06322aU, 0x3d8acd1fbd58915fU, 0x3dbc2b933d94330bU,
  0xbccf58403c2877b1U, 0xbdebd438be67a771U, 0xbe07d80cbe107084U, 0xbc840ec73dada4baU,
  0x3cc5f6a53d4a2b03U, 0x3d6cf4553cffc723U, 0x3d02c4e6bd073cdeU, 0xbd64fce63d133fc2U,
  0x3dfe13473c706f57U, 0x3e04ff773d2451ceU, 0x3e5db418bb986549U, 0x3b512db83e2985cfU,
  0x3e38a5183bfbad8dU, 0xbd8abac53db87119U, 0xbe9bdd94bdd0b96aU, 0xbef0b1dfbe7861aeU,
  0x3daf949d3e2b3ab8U, 0x3db4e2a73dc4fad8U, 0x3dec88863df1db65U, 0xbc8ad9f63dc2c3e3U,
  0x3e19f2013d22c98dU, 0xb9d7e6013abc78c9U, 0x3e3f92673c7dbdc8U, 0xbe4a98783e477ea9U,
  0x3e04c642bd0ffc7aU, 0x3dad30fd3e074019U, 0xbdeff6c0bdba6bb1U, 0x3d4566f43e403bdbU,
  0x3e49d29dbc5cdad6U, 0xbd457a733c42df18U, 0x3d77a5813e09cd21U, 0x3ddaa0673dedc7e5U,
  0x3da112de3c7c593dU, 0x3e3baa68bd2ca47dU, 0xbb3197d13bc5c6cdU, 0xbc498a733e2518b4U,
  0x3dfb8a8e3dfda010U, 0xbda060a2be3602efU, 0x3ed2f67f3d898eebU, 0x3e215ac03e3c58a0U,
};


ai_handle g_network_f02_weights_table[1 + 2] = {
  AI_HANDLE_PTR(AI_MAGIC_MARKER),
  AI_HANDLE_PTR(s_network_f02_weights_array_u64),
  AI_HANDLE_PTR(AI_MAGIC_MARKER),
};

